[PAD]
[UNK]
[CLS]
[SEP]
[MASK]
!
"
#
$
%
&
'
(
)
*
+
,
-
.
/
0
1
2
3
4
5
6
7
8
9
:
;
<
=
>
?
@
A
B
C
D
E
F
G
H
I
J
K
L
M
N
O
P
Q
R
S
T
U
V
W
X
Y
Z
[
\
]
^
_
`
a
b
c
d
e
f
g
h
i
j
k
l
m
n
o
p
q
r
s
t
u
v
w
x
y
z
{
|
}
~
¡
£
¥
§
©
«
®
°
±
²
³
´
µ
¶
·
¸
¹
º
»
¼
½
¾
¿
À
Á
Ä
Æ
Ç
É
Ó
Ö
×
Ø
Ú
Û
Ü
ß
à
á
â
ã
ä
å
æ
ç
è
é
ê
ë
ì
í
î
ï
ð
ñ
ò
ó
ô
õ
ö
÷
ø
ù
ú
û
ü
ý
þ
ā
ă
ą
ć
ĉ
Č
č
Đ
đ
ē
ę
ě
ĝ
ğ
ħ
ī
İ
ı
Ł
ł
ń
ŋ
Ō
ō
ŏ
œ
ř
ś
ŝ
Ş
ş
Š
š
ū
ŭ
ż
ž
ƒ
ơ
ư
Ʒ
ǎ
ǐ
ǒ
ǔ
ɐ
ɑ
ɒ
ɔ
ɕ
ə
ɛ
ɡ
ɢ
ɣ
ɥ
ɦ
ɨ
ɪ
ɫ
ɯ
ɲ
ɸ
ɹ
ɾ
ʀ
ʁ
ʂ
ʃ
ʊ
ʌ
ʑ
ʒ
ʔ
ʰ
ʲ
ʷ
ʻ
ʼ
ˇ
ˈ
ˊ
ˋ
ˌ
ː
˚
ˤ
̀
́
̃
̈
̚
̞
̥
̩
̯
̴
̵
̶
̷
̸
͘
͜
͡
Α
Β
Γ
Δ
Ε
Η
Θ
Ι
Κ
Λ
Μ
Ν
Ο
Π
Ρ
Σ
Τ
Υ
Φ
Χ
Ψ
Ω
ά
έ
ή
ί
α
β
γ
δ
ε
ζ
η
θ
ι
κ
λ
μ
ν
ξ
ο
π
ρ
ς
σ
τ
υ
φ
χ
ψ
ω
ό
ύ
ώ
Ё
А
Б
В
Г
Д
Е
Ж
З
И
К
Л
М
Н
О
П
Р
С
Т
У
Ф
Х
Ц
Ч
Ш
Э
Ю
Я
а
б
в
г
д
е
ж
з
и
й
к
л
м
н
о
п
р
с
т
у
ф
х
ц
ч
ш
щ
ъ
ы
ь
э
ю
я
ё
є
і
ј
҉
ғ
қ
ң
ү
ӕ
ә
ө
ա
ե
ն
ո
ր
ւ
ְ
ִ
ֵ
ַ
ָ
ֹ
ּ
א
ב
ד
ה
ו
י
כ
ל
ם
מ
ן
נ
ע
ק
ר
ש
ת
،
آ
أ
إ
ئ
ا
ب
ة
ت
ج
ح
خ
د
ر
ز
س
ش
ص
ط
ع
غ
ـ
ف
ق
ك
ل
م
ن
ه
و
ى
ي
َ
ِ
ّ
ْ
پ
ک
گ
ی
ं
क
त
न
म
य
र
व
स
ा
ि
ी
ु
े
्
ુ
்
ก
ค
ง
จ
ช
ท
น
ม
ย
ร
ล
ว
ส
อ
ั
า
ิ
ี
ุ
เ
ຈ
་
༼
༽
ა
ბ
დ
ე
ი
ლ
მ
ნ
ო
რ
ს
ᄀ
ᄂ
ᄃ
ᄅ
ᄆ
ᄇ
ᄉ
ᄊ
ᄋ
ᄌ
ᄎ
ᄒ
ᄠ
ᄢ
ᄫ
ᄭ
ᄯ
ᄲ
ᅀ
ᅌ
ᅟ
ᅡ
ᅣ
ᅥ
ᅦ
ᅩ
ᅮ
ᅳ
ᅴ
ᅵ
ᆖ
ᆞ
ᆡ
ᆨ
ᆫ
ᆮ
ᆯ
ᆷ
ᆸ
ᆺ
ᇙ
ᇚ
ᇰ
᠊
᠋
ᠠ
ᠣ
ᠨ
ᠩ
ᠪ
ᠮ
ᠯ
ᠰ
ᠴ
ᠵ
ᠶ
ᠸ
ᡝ
ᡠ
ᡡ
ᡤ
ᡥ
ᡨ
ᡩ
ᡳ
ᡴ
ᡵ
ᡶ
ế
ễ
ệ
ộ
ἀ
ἄ
Ἀ
ἐ
ἔ
ἡ
ἰ
ἱ
ἶ
ὁ
ὅ
ὐ
ὑ
ὰ
ὲ
ὴ
ὶ
ὸ
ῆ
ῖ
ῦ
ῶ
‐
–
—
―
‘
’
‚
“
”
†
‡
•
․
‥
…
‧
‰
′
″
‹
›
※
ⁿ
₂
₡
₩
€
℃
ℓ
™
⅓
⅔
Ⅰ
Ⅱ
Ⅲ
Ⅳ
Ⅴ
Ⅵ
Ⅶ
Ⅷ
Ⅸ
Ⅹ
←
↑
→
↓
↔
↕
↖
↗
↘
↙
⇒
⇔
∀
∅
∇
∑
−
∙
√
∞
∥
∧
∨
∩
∴
∼
≈
≒
≠
≤
≥
≧
≪
≫
⊂
⊃
⊙
⋅
⋯
⌀
⌆
⌒
①
②
③
④
⑤
⑥
⑦
⑧
⑨
⑩
⑪
⑫
⑮
⑴
⑵
⑶
⑸
Ⓐ
ⓐ
ⓑ
ⓒ
ⓓ
ⓔ
ⓕ
ⓗ
ⓝ
─
━
│
┃
┌
┐
└
┗
┘
├
╋
▄
█
░
▒
▓
■
□
▣
▩
▲
△
▶
▷
▼
▽
◀
◁
◆
◇
◈
◉
○
◎
●
◑
◕
◦
◯
◾
★
☆
☎
☓
☜
☞
☠
☭
♀
♂
♚
♠
♡
♣
♤
♥
♦
♧
♨
♩
♪
♫
♬
♭
♯
⚭
✈
✓
✕
✝
✯
✿
❤
➔
➜
➡
➰
⟨
⟩
⠀
、
。
〃
々
〇
〈
〉
《
》
「
」
『
』
【
】
〓
〔
〕
〜
〮
ぁ
あ
ぃ
い
ぅ
う
ぇ
え
ぉ
お
か
が
き
ぎ
く
ぐ
け
げ
こ
ご
さ
ざ
し
じ
す
ず
せ
ぜ
そ
ぞ
た
だ
ち
ぢ
っ
つ
づ
て
で
と
ど
な
に
ぬ
ね
の
は
ば
ぱ
ひ
び
ぴ
ふ
ぶ
ぷ
へ
べ
ぺ
ほ
ぼ
ぽ
ま
み
む
め
も
ゃ
や
ゅ
ゆ
ょ
よ
ら
り
る
れ
ろ
わ
ゐ
ゑ
を
ん
゙
ァ
ア
ィ
イ
ゥ
ウ
ェ
エ
ォ
オ
カ
ガ
キ
ギ
ク
グ
ケ
ゲ
コ
ゴ
サ
ザ
シ
ジ
ス
ズ
セ
ゼ
ソ
ゾ
タ
ダ
チ
ヂ
ッ
ツ
ヅ
テ
デ
ト
ド
ナ
ニ
ヌ
ネ
ノ
ハ
バ
パ
ヒ
ビ
ピ
フ
ブ
プ
ヘ
ベ
ペ
ホ
ボ
ポ
マ
ミ
ム
メ
モ
ャ
ヤ
ュ
ユ
ョ
ヨ
ラ
リ
ル
レ
ロ
ワ
ヰ
ヱ
ヲ
ン
ヴ
ヶ
・
ー
ヽ
ㄛ
ㄢ
ㄣ
ㄥ
ㄧ
ㄨ
ㄩ
ㄱ
ㄲ
ㄳ
ㄴ
ㄵ
ㄷ
ㄸ
ㄹ
ㄺ
ㄻ
ㄼ
ㅀ
ㅁ
ㅂ
ㅃ
ㅄ
ㅅ
ㅆ
ㅇ
ㅈ
ㅉ
ㅊ
ㅋ
ㅌ
ㅍ
ㅎ
ㅏ
ㅐ
ㅑ
ㅒ
ㅓ
ㅔ
ㅕ
ㅖ
ㅗ
ㅘ
ㅙ
ㅚ
ㅛ
ㅜ
ㅝ
ㅞ
ㅟ
ㅠ
ㅡ
ㅢ
ㅣ
ㅤ
ㅸ
ㅿ
ㆁ
ㆆ
ㆍ
㈜
㎉
㎍
㎎
㎏
㎑
㎒
㎖
㎛
㎜
㎝
㎞
㎠
㎡
㎢
㎥
㎾
㏄
一
丁
七
万
丈
三
上
下
不
与
丑
专
且
世
丘
丙
东
両
並
个
中
丸
丹
为
主
丼
丽
乃
久
么
义
之
乎
乏
乐
乗
乘
乙
九
也
习
书
乱
乳
乾
亀
亂
了
予
争
事
二
于
云
互
五
井
些
亜
亞
亡
交
亥
亦
享
京
亭
亮
亲
人
什
仁
仇
今
介
从
仏
仕
他
付
仙
代
令
以
们
仮
仰
仲
件
任
份
企
伊
伍
伏
伐
休
会
伝
传
伯
伴
伸
似
伽
但
位
低
住
佐
体
何
余
佛
作
你
佳
使
來
例
侍
供
依
価
侮
侯
侵
便
係
俊
俗
保
信
修
俺
倉
個
倍
們
倒
候
借
値
倫
倭
倶
假
偉
偏
做
停
健
側
偵
偶
偽
傍
傑
傘
備
催
傲
傳
傷
傾
働
像
僑
僕
僧
儀
億
儚
償
優
儿
元
兄
充
兆
先
光
克
免
兎
児
兒
党
入
內
全
兩
八
公
六
兮
兰
共
关
兴
兵
其
具
典
兼
内
円
冊
再
冒
冗
写
军
冠
冥
冬
冰
决
冶
冷
凄
准
凉
凍
凛
凡
処
凪
凯
凰
凱
凶
凸
凹
出
击
函
刀
刃
分
切
刊
刑
列
刘
刚
初
判
別
利
别
到
制
刹
刺
刻
則
削
前
剛
剣
副
割
創
劇
劉
劍
力
功
加
务
动
助
努
劫
励
労
効
勅
勇
勉
勒
動
勘
務
勝
勢
勤
勳
勿
匂
包
化
北
匠
匹
区
医
區
十
千
升
午
半
卍
华
卑
卒
卓
協
单
南
単
博
卜
占
卡
卫
卯
印
危
即
却
卵
卷
卽
卿
厄
厚
原
厨
厳
去
参
參
又
叉
及
友
双
反
収
发
叔
取
受
变
叙
叛
叡
叢
口
古
句
叩
只
叫
召
可
台
叱
史
右
叶
号
司
吃
各
合
吉
同
名
后
吐
向
吗
君
否
吧
含
听
吳
吴
吸
吹
吻
吾
呀
呂
呆
告
呑
员
呜
呢
周
呪
味
呵
呼
命
咆
和
咲
哀
品
哈
哉
哎
哟
員
哥
哦
哪
哭
哮
哲
哼
唄
唇
唐
唔
唯
唱
商
啊
問
啓
啦
善
喚
喜
喝
喧
喪
單
喰
営
嗯
嘆
嘉
嘗
嘘
嘛
嘩
嘻
嘿
噂
噌
噓
噛
器
嚴
囚
四
回
因
团
団
园
困
囲
図
固
国
國
圍
圏
園
圓
圖
團
土
圣
圧
在
圭
地
场
坂
均
坊
坐
坤
坪
垂
型
垢
埋
城
域
執
基
埼
堀
堂
堅
堕
堤
報
場
塊
塔
塗
塚
塞
塩
填
塵
塾
境
墓
増
增
墨
壁
壇
壊
壤
士
壬
声
壱
売
壽
处
备
変
夏
夕
外
多
夜
够
夢
大
天
太
夫
央
失
头
夷
奀
奇
奈
奉
奏
契
奔
奥
奪
奮
女
奴
她
好
如
妃
妄
妖
妙
妬
妹
妻
妾
姉
始
姐
姑
姓
委
姜
姦
姫
姬
姿
威
娘
娛
娱
婆
婚
婦
婷
嫁
嫉
嫌
嬉
嬢
子
孔
字
存
孝
孟
季
孤
学
孩
孫
學
宁
它
宅
宇
守
安
宋
完
宏
宗
官
宙
定
宜
宝
实
実
客
宣
室
宮
宰
害
宴
宵
家
容
宿
寂
寄
寅
密
富
寒
寛
寝
察
寡
實
寧
審
寶
寸
对
寺
対
寿
封
専
射
将
將
專
尊
尋
對
導
小
少
尔
尙
尚
就
尸
尹
尺
尻
尼
尽
尾
局
居
屈
届
屋
屍
屑
展
属
屠
層
履
屬
山
岐
岛
岡
岩
岳
岸
峰
峴
島
崇
崎
崔
崩
嵐
嶋
嶺
川
州
巡
巣
工
左
巧
巨
巫
差
己
已
巳
巴
巻
市
布
帆
希
帝
帥
带
師
席
帮
帯
帰
帳
帶
常
帽
幌
幕
幡
干
平
年
并
幸
幻
幼
幽
幾
广
広
庄
床
序
应
底
店
庚
府
度
座
庫
庭
庵
庶
康
廃
廉
廣
廳
延
建
廻
廿
开
弁
弄
式
弐
弓
引
弗
弘
弟
张
弥
弦
弩
弱
張
強
强
弾
彈
彌
当
彡
形
彦
彩
影
彷
役
彼
往
征
待
很
律
後
徐
徒
従
得
從
御
徨
復
微
徳
徴
德
徹
心
必
忌
忍
志
忘
忙
応
忠
快
念
怎
怒
怕
怖
思
怠
急
性
怨
怪
怯
总
恋
恐
恒
恥
恨
恩
恭
息
恵
悔
悟
悠
患
您
悩
悪
悲
悶
情
惑
惚
惜
惟
惠
惡
想
愁
意
愚
愛
感
慈
態
慌
慎
慕
慢
慣
慧
慮
慰
慶
憂
憎
憐
憑
憧
憩
憲
憶
應
懐
懸
戀
戈
戏
成
我
戒
或
战
戦
戯
戰
戴
戶
戸
戻
房
所
扇
扉
手
才
打
払
托
扮
扱
扶
找
承
技
抄
把
投
抗
折
抜
択
护
报
抱
抵
押
担
拉
拍
拒
拓
拘
拙
招
拜
拝
拠
拡
拳
拶
拼
拾
持
指
按
挑
挙
挥
挨
振
捉
捕
捜
捧
捨
掃
授
掌
排
掘
掛
探
接
控
推
掴
描
提
揚
換
握
揮
援
揺
損
携
摂
摩
撃
撫
撮
擊
操
擧
支
收
改
攻
放
政
故
效
敌
敎
敏
救
敗
教
敢
散
敦
敬
数
整
敵
敷
數
文
斉
斎
斐
斗
料
斥
斬
断
斯
新
斷
方
於
施
旅
旋
族
旗
无
既
旣
日
旦
旧
旨
早
旬
旭
时
旺
昆
昇
昌
明
昏
易
昔
星
映
春
昧
昨
昭
是
昼
時
晃
晉
晋
晚
晩
普
景
晴
晶
智
暁
暇
暑
暖
暗
暮
暴
曇
曉
曜
曰
曲
更
書
曹
曺
曼
曽
曾
替
最
會
月
有
朋
服
朗
望
朝
期
朧
木
未
末
本
札
术
朱
朴
机
杉
李
杏
材
村
杖
杜
束
条
来
杨
杯
東
松
板
林
枚
果
枝
枪
枯
架
柄
柊
柏
某
染
柔
柱
柳
柴
査
栄
标
栖
栗
栞
校
株
样
核
根
格
桂
桃
案
桐
桑
桓
桔
桜
梁
梅
梗
條
梦
梧
梨
械
梵
棄
棋
棒
棕
森
棲
植
椎
検
椿
楊
楓
楚
楠
業
極
楼
楽
榛
榮
構
槌
槍
様
樂
標
模
樣
権
横
樹
橋
橘
機
橫
檎
檢
檬
櫻
欅
權
欠
次
欢
欲
欺
歌
歓
止
正
此
步
武
歩
歪
歯
歲
歳
歴
歷
歸
死
殊
残
殘
殴
段
殺
殿
母
毎
每
毒
比
毕
毛
氏
民
气
気
氣
氧
水
氷
永
汁
求
汉
汗
汚
汝
江
池
汪
汰
決
汽
沈
沌
沒
沖
沙
没
沢
沫
河
油
治
沼
況
泉
泊
法
泡
波
泣
泥
注
泰
泳
洋
洗
洛
洞
津
洪
洲
活
派
流
浄
浅
浜
浦
浩
浪
浮
浴
海
浸
消
涙
涯
液
涼
淀
淡
淨
淫
深
淳
淵
混
淸
添
清
済
渉
渋
渚
減
渠
渡
渦
温
測
港
游
湖
湘
湧
湯
湾
湿
満
源
準
溜
溝
溪
溫
溶
溺
滅
滑
滝
滞
满
滿
漁
漂
漆
漏
演
漢
漫
漬
潔
潜
潤
潮
潰
澄
澤
激
濃
濟
濡
濯
瀬
灣
火
灯
灰
灼
災
炊
炎
炭
炸
点
為
烈
烏
烦
焉
焔
無
焦
然
焼
煉
煌
煙
照
煩
煮
熊
熙
熟
熱
燃
燈
燒
燕
營
爆
爛
爪
爭
爱
爲
爵
父
爺
爽
爾
片
版
牌
牙
牛
牟
牧
物
特
犬
犯
状
狀
狂
狐
狗
狙
狩
独
狭
狼
猛
猪
猫
猿
獄
獅
獣
獨
獲
獸
玄
率
玉
王
玩
现
玲
珍
珠
班
現
球
理
琉
琴
瑞
瑠
璃
璧
環
瓦
瓶
甘
甚
生
産
用
田
由
甲
申
电
男
町
画
界
畑
留
畜
略
番
畫
異
畵
當
疑
疲
疾
病
症
痕
痛
痴
癒
癖
発
登
發
白
百
的
皆
皇
皮
皿
益
盗
盛
盟
盡
監
盤
盧
目
盲
直
相
盾
省
看
県
眞
真
眠
眷
眼
着
睡
督
睦
瞬
瞳
矢
矣
知
短
石
砂
研
砕
砲
破
硏
硝
硬
碧
確
磁
磨
磯
示
礼
社
祇
祈
祐
祓
祖
祝
神
祥
票
祭
禁
禍
福
禮
禾
秀
私
秋
种
科
秒
秘
秦
秩
称
移
稀
程
稍
稚
種
稱
稲
稼
稽
稿
穂
積
穏
穢
穴
究
空
穿
突
窓
窪
窮
立
站
竜
竟
章
童
端
競
竹
笑
笛
笠
符
第
笹
筆
等
筋
筑
答
策
算
管
箭
箱
節
範
篇
築
篠
篤
簡
籍
籠
米
粉
粋
粒
精
糖
糞
糸
系
紀
約
紅
紋
納
純
紗
紙
級
紛
素
紡
索
紫
累
細
紹
紺
終
組
絆
経
結
絡
給
統
絲
絵
絶
經
継
続
綠
維
綱
網
綺
綾
綿
緊
緋
総
緑
緒
線
締
緣
編
練
縁
縄
縛
縣
縦
縫
縮
總
績
繋
織
繚
繰
纏
红
级
线
练
终
经
结
给
续
维
缶
缺
罗
罠
罪
置
罰
羅
羊
美
群
義
羽
翁
習
翔
翠
翻
翼
耀
老
考
者
而
耐
耳
耶
联
聖
聚
聞
聯
聲
聴
職
聽
肉
肌
肖
股
肥
肩
育
胆
背
胎
胜
胞
胡
胸
能
脅
脇
脚
脫
脱
脳
腐
腕
腰
腹
膳
臆
臣
臨
自
臭
至
致
臺
與
興
舊
舌
舍
舎
舞
舟
航
般
舰
船
艇
艦
良
色
艶
艺
节
芋
芝
芥
芦
花
芳
芸
芽
苏
苑
苗
若
苦
英
苺
茂
茅
茉
茜
茨
茶
草
荒
荘
荣
荷
莉
莊
莫
菅
菊
菌
菓
菜
菩
華
萌
萩
萬
落
葉
著
葛
葦
葬
葵
蒙
蒲
蒼
蓄
蓋
蓝
蓮
蔑
蔡
蔣
蔵
蕉
蕭
蕾
薄
薇
薔
薙
薩
薬
藍
藏
藝
藤
藥
蘇
蘭
虎
虐
處
虚
虛
虜
號
虫
虹
虽
蛇
蛋
蛍
蛛
蛮
蜂
蜃
蜘
蜜
蝕
蝶
融
螺
蟲
蟹
蠍
血
衆
行
術
街
衛
衝
衣
表
衰
袋
袖
被
裁
裂
装
裏
裕
補
裝
裡
裸
製
褒
襲
西
要
覆
覇
見
規
視
覚
覧
親
観
覺
觀
见
视
觉
角
解
触
言
計
討
訓
記
訪
設
許
訳
訶
註
証
詐
評
詞
詠
試
詩
詰
話
詳
誅
誇
誉
誌
認
誓
誕
誘
語
誠
誤
說
説
読
誰
課
調
談
請
論
諦
諸
謀
謂
謄
謎
謙
講
謝
謹
證
識
譚
譜
警
議
譲
護
讀
讃
變
讐
计
认
让
训
记
许
论
诉
词
试
话
诞
该
语
说
诶
请
谢
谷
豆
豊
豚
象
豪
貌
貝
貞
負
財
貢
貧
貨
貪
貫
責
貰
貴
買
貸
費
賀
資
賊
賛
賜
賞
賢
賣
質
賭
贈
负
赛
赤
赦
赫
走
起
超
越
趙
趣
足
距
跟
跡
路
跳
踊
踏
蹴
躍
身
車
軌
軍
軒
転
軽
載
輔
輕
輝
輩
輪
輸
轉
轟
车
辛
辞
辟
辭
辰
辱
農
边
辺
込
辿
迅
过
迎
运
近
返
还
这
进
远
连
迦
迫
迷
追
退
送
逃
逆
选
透
逐
途
這
通
逝
速
造
逢
連
週
進
逸
遂
遅
遇
遊
運
過
道
達
違
遠
遣
遥
適
遭
遮
遷
選
遺
遼
避
還
邊
邑
那
邦
邪
邱
郎
郞
郡
部
郭
郵
郷
都
鄕
鄭
酉
配
酒
酔
酷
酸
醒
醫
采
釋
里
重
野
量
金
釜
針
釣
鈍
鈴
鉄
鉢
銀
銃
銅
銘
鋭
鋼
錄
錦
錨
錬
錯
録
鍋
鍛
鍵
鍾
鎌
鎖
鎧
鎭
鎮
鏡
鐘
鐵
鑑
铁
错
長
长
門
閃
閉
開
間
関
閣
閥
闇
闘
關
门
问
间
队
阪
防
阻
阿
陀
附
陈
降
限
院
陣
除
险
陪
陰
陳
陵
陶
陸
険
陽
隅
隆
隈
隊
階
随
隙
際
障
隠
隣
隨
隱
隷
隼
难
雀
雄
雅
集
雑
雖
雙
雜
離
難
雨
雪
雫
雰
雲
零
雷
電
需
震
霊
霜
霞
霧
露
靈
靑
青
靖
静
非
靠
面
革
靴
韓
音
韻
響
頂
頃
項
順
須
預
頑
頓
領
頭
頼
題
顔
顕
願
類
顧
顯
题
風
风
飛
飜
飞
食
飢
飯
飲
飼
飽
飾
餅
養
餐
餓
餘
館
首
香
馬
馴
駄
駅
駆
駒
駿
騎
騒
験
騙
驚
驛
马
骨
體
高
髙
髪
鬪
鬱
鬼
魂
魅
魏
魔
魚
鮮
鱼
鳥
鳳
鳴
鴨
鶴
鷄
鷲
鷹
鸡
鹿
麗
麟
麦
麵
麻
黃
黄
黎
黑
黒
黙
點
黨
鼓
鼠
鼻
齊
齋
龍
龙
龜
가
각
간
갇
갈
갉
감
갑
값
갓
갔
강
갖
갗
같
갚
갛
개
객
갞
갠
갤
갬
갭
갯
갰
갱
갸
갹
갼
걀
걍
걔
걘
거
걱
걲
건
걷
걸
걼
검
겁
것
겄
겅
겆
겉
겊
겋
게
겍
겐
겔
겜
겟
겠
겡
겨
격
겪
견
결
겸
겹
겻
겼
경
곁
곂
계
곗
곘
고
곡
곤
곧
골
곪
곬
곯
곰
곱
곳
공
곶
과
곽
관
괄
괌
광
괘
괜
괞
괭
괴
괵
괸
굇
굉
교
굣
굥
구
국
군
굳
굴
굵
굶
굼
굽
굿
궁
궂
궃
궈
궉
권
궐
궜
궤
궨
귀
귁
귄
귈
귐
귓
규
균
귤
귬
그
극
근
귿
글
긁
금
급
긋
긍
긔
기
긱
긴
긷
길
김
깁
깃
깄
깅
깈
깉
깊
까
깍
깎
깐
깔
깜
깝
깟
깠
깡
깥
깨
깬
깰
깸
깹
깻
깼
깽
꺄
꺅
꺠
꺨
꺵
꺼
꺽
꺾
껀
껄
껌
껍
껏
껐
껑
께
껜
껨
껫
껴
껸
꼇
꼈
꼐
꼬
꼭
꼰
꼳
꼴
꼼
꼽
꼿
꽁
꽂
꽃
꽈
꽉
꽌
꽐
꽝
꽤
꽥
꽹
꾀
꾐
꾜
꾸
꾹
꾼
꾿
꿀
꿇
꿈
꿉
꿋
꿍
꿎
꿏
꿔
꿘
꿧
꿨
꿩
꿰
꿴
꿸
뀌
뀐
뀔
뀜
뀝
뀨
뀽
끄
끅
끈
끉
끊
끌
끎
끓
끔
끕
끗
끙
끝
끠
끼
끽
낀
낄
낌
낍
낏
낑
나
낙
낚
난
낟
날
낡
낢
남
납
낫
났
낭
낮
낯
낰
낱
낳
내
낵
낸
낼
냄
냅
냇
냈
냉
냐
냑
냔
냘
냠
냣
냥
너
넉
넋
넌
널
넒
넓
넖
넗
넘
넙
넛
넜
넝
넣
네
넥
넨
넬
넴
넵
넷
넸
넹
넼
녀
녁
년
녈
념
녓
녔
녕
녘
녜
녠
녤
노
녹
논
놀
놈
놉
놋
농
높
놓
놔
놨
뇌
뇨
뇬
뇰
뇽
누
눅
눈
눌
눔
눕
눗
눙
눝
눞
눠
눴
눼
뉘
뉜
뉠
뉨
뉴
뉵
뉼
늄
늅
늉
느
늑
는
늘
늙
늠
늡
늣
능
늦
늪
늬
니
닉
닌
닐
님
닙
닛
닝
닠
닢
다
닥
닦
단
닫
달
닭
닮
닯
닳
담
답
닷
당
닺
닻
닼
닿
대
댁
댄
댈
댐
댑
댓
댔
댕
댜
댱
더
덕
던
덜
덞
덟
덤
덥
덧
덩
덪
덫
덬
덮
덯
데
덱
덴
덷
델
뎀
뎁
뎃
뎅
뎊
뎌
뎐
뎠
뎡
뎨
뎬
도
독
돈
돋
돌
돔
돕
돗
동
돚
돛
돝
돠
돡
돤
돼
됀
됏
됐
되
된
될
됨
됩
됫
됬
됭
됴
됸
두
둑
둔
둘
둠
둡
둣
둥
둬
뒀
뒈
뒤
뒬
뒴
뒷
뒹
듀
듁
듄
듈
듐
듕
드
득
든
듣
들
듦
듬
듭
듯
등
듸
디
딕
딘
딛
딜
딤
딥
딧
딨
딩
딪
딫
딮
따
딱
딴
딸
땀
땁
땃
땄
땅
땋
때
땍
땐
땔
땜
땟
땠
땡
떄
떈
떙
떠
떡
떤
떨
떫
떰
떱
떳
떴
떵
떻
떼
떽
뗀
뗄
뗌
뗏
뗐
뗑
뗴
또
똑
똔
똘
똠
똣
똥
똬
뙇
뙈
뙤
뚜
뚝
뚠
뚤
뚧
뚫
뚯
뚱
뚸
뛰
뛴
뛸
뜀
뜌
뜨
뜩
뜬
뜯
뜰
뜷
뜸
뜹
뜻
뜽
띁
띄
띈
띌
띔
띠
띡
띤
띨
띰
띵
라
락
란
랄
람
랍
랏
랐
랑
랖
랗
래
랙
랜
랠
램
랩
랫
랬
랭
랲
랴
략
랸
랼
럇
량
러
럭
런
럴
럼
럽
럿
렀
렁
렇
레
렉
렌
렐
렘
렙
렛
렜
렝
려
력
련
렬
렴
렵
렷
렸
령
례
롄
롈
로
록
론
롤
롬
롭
롯
롱
롸
롹
뢰
뢴
뢸
룀
료
룔
룡
루
룩
룬
룰
룸
룹
룻
룽
뤄
뤘
뤠
뤼
뤽
륀
륄
륌
류
륙
륜
률
륨
륭
르
륵
른
를
름
릅
릇
릉
릎
릐
리
릭
린
릴
림
립
릿
링
맆
마
막
만
많
맏
말
맑
맕
맘
맙
맛
맜
망
맞
맟
맠
맡
맢
맣
매
맥
맨
맫
맬
맴
맵
맷
맸
맹
맺
맻
먀
먄
먐
먕
머
먹
먼
멀
멈
멋
멍
멎
멓
메
멕
멘
멜
멤
멥
멧
멨
멩
멬
며
멱
면
멸
몀
몃
몄
명
몆
몇
몌
몐
모
목
몪
몫
몬
몯
몰
몸
몹
못
몽
뫄
뫼
묀
묄
묏
묘
묜
묠
묫
묭
무
묵
묶
문
묻
물
묽
묾
뭄
뭅
뭇
뭉
뭍
뭐
뭔
뭘
뭡
뭣
뭥
뭬
뮈
뮌
뮐
뮤
뮨
뮬
뮴
뮻
므
믄
믈
믐
믓
믕
믜
미
믹
민
믾
믿
밀
밈
밉
밋
밌
밍
밎
및
밐
밑
바
박
밖
반
받
발
밝
밞
밟
밣
밤
밥
밧
방
밭
배
백
밴
밷
밸
뱀
뱁
뱃
뱄
뱅
뱉
뱌
뱐
뱟
뱡
버
벅
번
벋
벌
범
법
벗
벙
벚
벛
벞
베
벡
벤
벧
벨
벰
벱
벳
벴
벵
벼
벽
변
별
볌
볍
볏
볐
병
볓
볕
볘
볜
보
복
볶
본
볼
봄
봅
봇
봉
봐
봑
봙
봣
봤
봬
뵈
뵌
뵐
뵘
뵙
뵤
뵹
부
북
분
붇
불
붉
붐
붑
붓
붕
붙
붜
붸
뷀
뷁
뷔
뷘
뷜
뷧
뷰
뷴
뷸
븀
븅
브
븐
블
븜
븝
븟
븨
비
빅
빈
빋
빌
빔
빕
빗
빙
빚
빛
빠
빡
빤
빨
빰
빱
빳
빴
빵
빻
빼
빽
뺀
뺄
뺌
뺏
뺐
뺑
뺘
뺨
뺩
뺴
뺵
뺸
뻇
뻉
뻐
뻑
뻔
뻗
뻘
뻣
뻤
뻥
뻬
뼈
뼉
뼘
뼛
뼝
뽀
뽁
뽄
뽈
뽐
뽑
뽕
뽜
뾰
뾱
뿅
뿌
뿍
뿐
뿔
뿜
뿝
뿡
쀼
쁘
쁜
쁠
쁨
쁩
삐
삑
삔
삘
삡
삣
삥
사
삭
삯
산
살
삵
삶
삷
삼
삽
삿
샀
상
샄
샅
새
색
샌
샐
샘
샙
샛
샜
생
샤
샥
샨
샬
샴
샵
샷
샹
샾
섀
섄
섈
섐
섕
서
석
섞
선
섣
설
섥
섬
섭
섯
섰
성
섵
섶
세
섹
센
셀
셈
셉
셋
셌
셍
셔
셕
션
셜
셤
셧
셨
셩
셰
셱
셴
셸
솀
솁
솃
솅
솊
소
속
솎
손
솓
솔
솜
솝
솟
송
솥
솦
솨
솩
솬
솰
솽
쇄
쇠
쇤
쇳
쇼
쇽
숀
숄
숌
숍
숏
숑
숔
수
숙
순
숟
술
숨
숩
숫
숭
숯
숱
숲
숴
쉈
쉐
쉑
쉔
쉘
쉠
쉣
쉥
쉬
쉭
쉰
쉴
쉼
쉽
쉿
슁
슈
슉
슌
슐
슘
슙
슛
슝
스
슥
슨
슬
슭
슴
습
슷
승
슻
슼
슾
싀
시
식
신
싣
실
싫
심
십
싯
싱
싴
싶
싸
싹
싼
쌀
쌈
쌉
쌌
쌍
쌓
쌔
쌕
쌘
쌤
쌥
쌨
쌩
쌰
썅
썡
써
썩
썪
썬
썰
썸
썹
썻
썼
썽
쎄
쎈
쎌
쎔
쎘
쎼
쎾
쏘
쏙
쏜
쏟
쏠
쏨
쏩
쏫
쏭
쏴
쏼
쐇
쐈
쐐
쐬
쐰
쐴
쑈
쑤
쑥
쑨
쑬
쑴
쑹
쒀
쒔
쒸
쓩
쓰
쓱
쓴
쓸
씀
씁
씅
씌
씐
씡
씨
씩
씬
씰
씸
씹
씻
씼
씽
아
악
안
앉
않
알
앍
앎
앏
앓
암
압
앖
앗
았
앙
앚
앜
앝
앞
앟
애
액
앤
앧
앨
앰
앱
앳
앴
앵
앺
야
약
얀
얄
얆
얇
얉
얌
얍
얏
얐
양
얔
얕
얗
얘
얜
얠
어
억
얶
언
얹
얻
얼
얽
엄
업
없
엇
었
엉
엊
엌
엎
에
엑
엔
엘
엠
엡
엣
엤
엥
엪
여
역
엮
연
엳
열
엶
엷
염
엽
엾
엿
였
영
옃
옅
옆
옇
예
옉
옌
옐
옘
옙
옛
옜
오
옥
온
올
옭
옮
옯
옳
옴
옵
옷
옹
옻
옼
와
왁
완
왈
왐
왑
왓
왔
왕
왘
왜
왝
왠
왤
왱
외
왼
욀
욌
욍
요
욕
욘
욜
욤
욥
욧
용
욬
우
욱
운
울
욺
움
웁
웃
웅
워
웍
원
월
웜
웝
웟
웠
웡
웤
웦
웨
웩
웬
웰
웸
웹
웻
웽
위
윅
윈
윌
윔
윕
윗
윙
유
육
윤
율
윰
윱
윳
융
윷
으
윽
윾
은
읃
을
읆
읇
읊
음
읍
읎
읏
응
읔
읕
읖
읗
의
읜
읭
이
익
읶
읷
인
읺
읻
일
읽
잃
임
입
잆
잇
있
잉
잊
잌
잎
자
작
잔
잖
잘
잠
잡
잣
잤
장
잦
재
잭
잰
잴
잼
잽
잿
쟀
쟁
쟈
쟉
쟌
쟐
쟘
쟝
쟤
쟨
저
적
전
절
젊
젋
점
접
젓
젔
정
젖
제
젝
젠
젤
젬
젭
젯
젱
져
젹
젼
졀
졈
졋
졌
졍
졔
조
족
존
졷
졸
좀
좁
좃
종
좆
좇
좋
좌
좍
좔
좝
좡
좨
죄
죈
죌
죔
죗
죙
죠
죤
죵
주
죽
준
줄
줌
줍
줏
중
줘
줜
줫
줬
줴
쥐
쥑
쥔
쥘
쥠
쥬
쥰
쥴
쥿
즈
즉
즌
즐
즘
즙
즛
증
즤
지
직
진
짇
질
짊
짐
집
짓
징
짖
짙
짚
짜
짝
짠
짢
짤
짦
짧
짫
짬
짭
짯
짰
짱
째
짹
짼
쨀
쨈
쨉
쨋
쨌
쨍
쨔
쨘
쨜
쨩
쨰
쩄
쩌
쩍
쩐
쩔
쩜
쩝
쩡
쩨
쪄
쪘
쪙
쪼
쪽
쫀
쫄
쫌
쫑
쫒
쫓
쫗
쫘
쫙
쬐
쬔
쬘
쬬
쭈
쭉
쭌
쭐
쭘
쭙
쭝
쭤
쮸
쯋
쯔
쯤
쯧
쯩
찌
찍
찐
찔
찜
찝
찟
찡
찢
찣
찧
차
착
찬
찮
찰
참
찹
찻
찼
창
찾
찿
채
책
챈
챌
챔
챕
챗
챘
챙
챠
챤
챨
챰
챱
챳
챵
처
척
천
철
첨
첩
첫
첬
청
체
첵
첸
첼
쳄
쳅
쳇
쳉
쳐
쳔
쳘
쳣
쳤
쳥
쳬
쳰
초
촉
촌
촐
촘
촙
촛
총
촤
촥
촨
촬
촵
촹
최
쵤
쵸
쵼
춈
춉
춍
추
축
춘
출
춤
춥
춧
충
춫
춰
췄
췌
췐
취
췬
츄
츈
츌
츔
츕
츙
츠
측
츤
츨
츰
츳
층
치
칙
친
칠
칡
침
칩
칫
칭
칯
칰
칲
카
칵
칸
칼
캄
캅
캇
캉
캌
캎
캐
캑
캔
캘
캠
캡
캣
캤
캥
캪
캬
캰
캼
컁
커
컥
컨
컫
컬
컴
컵
컷
컸
컹
컽
케
켁
켄
켈
켐
켑
켓
켕
켜
켠
켤
켬
켯
켰
코
콕
콘
콜
콤
콥
콧
콩
콯
콰
콱
콴
콸
쾅
쾌
쾡
쾨
쾰
쿄
쿈
쿙
쿠
쿡
쿤
쿨
쿰
쿱
쿳
쿵
쿼
쿽
퀀
퀄
퀑
퀘
퀜
퀠
퀭
퀴
퀵
퀸
퀼
큄
큅
큇
큉
큐
큔
큘
큠
큡
큣
큥
크
큭
큰
클
큼
큽
큿
킁
킅
키
킥
킨
킬
킴
킵
킷
킹
킼
타
탁
탄
탈
탉
탐
탑
탓
탔
탕
태
택
탠
탤
탬
탭
탯
탰
탱
탶
탸
터
턱
턴
털
텀
텁
텃
텄
텅
테
텍
텐
텔
템
텝
텟
텡
텨
텻
텼
톄
톈
토
톡
톤
톨
톰
톱
톳
통
퇘
퇴
툇
툐
툠
투
툭
툰
툴
툼
툽
툿
퉁
퉈
퉜
퉤
퉷
튀
튄
튈
튐
튕
튜
튠
튤
튬
튭
튱
트
특
튼
튽
튿
틀
틈
틉
틋
틍
틑
틔
틩
티
틱
틴
틸
팀
팁
팃
팅
파
팍
팎
판
팔
팜
팝
팟
팠
팡
팤
팥
패
팩
팬
팰
팸
팹
팻
팼
팽
퍄
퍅
퍼
퍽
펀
펄
펌
펍
펏
펐
펑
페
펙
펜
펠
펨
펩
펫
펭
펰
펴
편
펼
폄
폈
평
폐
포
폭
폰
폴
폼
폽
폿
퐁
퐄
퐈
퐝
푀
푄
푈
표
푯
푱
푸
푹
푼
풀
풂
품
풉
풋
풍
풔
퓌
퓐
퓔
퓨
퓩
퓬
퓰
퓸
퓽
프
픈
플
픔
픕
픙
픠
피
픽
핀
필
핌
핍
핏
핑
하
학
한
할
핡
핥
핧
함
합
핫
핬
항
핰
핱
핲
핳
해
핵
핸
핼
햄
햅
햇
했
행
햏
햐
햔
햘
햝
햣
햤
향
헀
허
헉
헌
헐
험
헙
헛
헝
헠
헣
헤
헥
헨
헬
헴
헵
헷
헸
헹
헿
혀
혁
현
혈
혐
협
혓
혔
형
혜
혤
호
혹
혼
홀
홈
홉
홋
홍
홑
홓
화
확
환
활
홧
황
홰
홱
횃
횅
회
획
횐
횔
횟
횡
효
횬
횻
횽
후
훅
훈
훌
훍
훑
훓
훔
훕
훗
훙
훝
훠
훤
훨
훵
훼
휀
휄
휑
휘
휙
휜
휠
휨
휩
휫
휭
휴
휸
휼
흄
흉
흐
흑
흔
흘
흙
흝
흠
흡
흣
흥
흩
흫
희
흭
흰
흴
흽
히
힉
힌
힐
힘
힙
힛
힝
힣
金
不
女
零
龍
六
李
︎
️
！
＂
＃
＄
％
＆
（
）
＊
＋
，
－
．
／
０
１
２
３
４
５
６
７
８
９
：
；
＜
＝
＞
？
＠
Ａ
Ｂ
Ｃ
Ｄ
Ｅ
Ｆ
Ｇ
Ｈ
Ｉ
Ｊ
Ｋ
Ｌ
Ｍ
Ｎ
Ｏ
Ｐ
Ｒ
Ｓ
Ｔ
Ｕ
Ｖ
Ｗ
Ｘ
Ｙ
Ｚ
［
＼
］
＾
＿
｀
ａ
ｅ
ｈ
ｉ
ｋ
ｍ
ｎ
ｏ
ｒ
ｓ
ｔ
ｕ
ｗ
｜
～
｡
｢
｣
､
･
ｧ
ｩ
ｪ
ｫ
ｯ
ｰ
ｱ
ｲ
ｳ
ｴ
ｵ
ｶ
ｸ
ｼ
ｽ
ﾀ
ﾃ
ﾄ
ﾉ
ﾊ
ﾌ
ﾘ
ﾝ
ﾞ
ﾟ
￡
￣
￥
￦
𝑒
🌙
🏻
🐥
🐶
👍
💕
💜
🗨
😍
##그
##니
##시
##오
##에
##게
##수
##적
##립
##얄
##가
##드
##는
##신
##감
##이
##었
##다
##고
##스
##터
##용
##코
##어
##만
##려
##서
##부
##지
##n
##t
##r
##o
##i
##u
##s
##의
##차
##함
##으
##로
##추
##진
##완
##소
##를
##H
##9
##0
##E
##J
##월
##말
##병
##기
##곡
##며
##처
##럼
##임
##썬
##더
##쳐
##있
##d
##e
##안
##풍
##일
##때
##A
##N
##K
##Y
##O
##와
##R
##팩
##을
##S
##U
##거
##대
##메
##카
##사
##간
##구
##역
##웃
##포
##트
##춤
##픈
##도
##뿐
##델
##들
##라
##경
##전
##자
##동
##류
##견
##리
##석
##틀
##테
##크
##면
##맥
##주
##너
##같
##쿨
##블
##은
##5
##6
##위
##짜
##령
##인
##복
##과
##글
##섬
##쿠
##야
##마
##벽
##레
##버
##제
##정
##보
##등
##학
##교
##편
##까
##성
##반
##험
##군
##B
##키
##백
##저
##협
##염
##데
##릭
##축
##곳
##괴
##족
##맨
##통
##미
##관
##계
##츠
##모
##토
##화
##강
##쪽
##치
##걸
##린
##호
##g
##발
##두
##콘
##하
##길
##예
##생
##아
##l
##T
##h
##a
##응
##룡
##림
##4
##명
##희
##되
##현
##왕
##점
##조
##력
##녀
##1
##공
##속
##선
##채
##원
##2
##년
##여
##씨
##무
##르
##행
##재
##삼
##상
##해
##봤
##프
##망
##살
##영
##줫
##디
##척
##첨
##였
##세
##급
##태
##산
##벨
##찟
##승
##던
##운
##웠
##합
##격
##L
##m
##투
##방
##환
##3
##브
##좌
##7
##우
##탸
##천
##C
##잠
##느
##루
##질
##판
##잡
##줘
##잖
##연
##비
##배
##층
##랙
##X
##써
##장
##올
##회
##쓰
##잉
##능
##료
##중
##록
##텔
##획
##혈
##P
##M
##옹
##음
##빌
##출
##봇
##형
##종
##뷔
##작
##큼
##파
##집
##물
##뜨
##문
##알
##므
##온
##슈
##탐
##것
##별
##단
##표
##패
##턴
##남
##읍
##륙
##법
##훼
##당
##할
##약
##했
##락
##놈
##듯
##c
##b
##い
##や
##체
##량
##업
##식
##황
##애
##긴
##암
##폐
##총
##란
##I
##캇
##불
##탱
##앍
##빵
##갈
##G
##송
##V
##촬
##답
##막
##닝
##k
##민
##국
##창
##론
##향
##나
##유
##겠
##양
##탈
##밴
##네
##죠
##러
##흥
##분
##맹
##설
##샷
##왔
##y
##z
##밸
##런
##듀
##랑
##젤
##엔
##악
##품
##×
##타
##곰
##실
##매
##징
##충
##술
##래
##최
##촌
##봉
##번
##워
##쵸
##닙
##한
##내
##딩
##없
##익
##カ
##ル
##マ
##결
##난
##접
##플
##겐
##캐
##개
##득
##깔
##뢰
##맞
##순
##덤
##침
##략
##벤
##р
##а
##т
##с
##к
##련
##받
##Z
##히
##친
##줄
##독
##곤
##즈
##링
##요
##펜
##션
##후
##헌
##초
##티
##바
##칸
##먼
##렸
##례
##D
##렝
##ぎ
##た
##て
##각
##울
##항
##졌
##끝
##켓
##클
##럽
##건
##빠
##챙
##셀
##렉
##뜯
##먹
##램
##p
##q
##밖
##베
##노
##씌
##직
##목
##져
##컬
##8
##섰
##페
##밑
##슛
##폭
##광
##혼
##피
##찰
##갑
##권
##든
##졸
##색
##→
##팀
##킬
##넴
##왼
##F
##컵
##룩
##커
##녕
##돈
##입
##릿
##굴
##렬
##셴
##케
##v
##™
##샌
##つ
##も
##り
##w
##퀸
##톰
##볼
##냐
##멜
##른
##픽
##쉬
##엄
##쇼
##슨
##텐
##택
##헤
##x
##갓
##퇴
##렁
##찮
##열
##됨
##몄
##꿔
##절
##았
##렐
##튜
##춘
##났
##섯
##님
##W
##웅
##놀
##젠
##규
##낌
##펙
##찝
##겨
##철
##증
##훈
##딜
##팅
##새
##본
##둑
##근
##육
##ま
##せ
##る
##が
##북
##밀
##맛
##땅
##김
##벌
##츄
##폴
##준
##힐
##팝
##널
##궁
##펀
##또
##셔
##외
##측
##셜
##짱
##멘
##f
##좀
##밍
##쁘
##담
##웨
##폼
##끼
##놓
##념
##달
##필
##름
##옥
##평
##돼
##핀
##뻔
##따
##착
##머
##슬
##튼
##박
##쟁
##푼
##액
##덩
##콤
##누
##심
##겸
##펠
##죄
##얀
##킨
##と
##し
##렀
##랜
##람
##왑
##わ
##ら
##뿔
##꽃
##랩
##객
##몬
##톨
##쇄
##컨
##혹
##е
##в
##ы
##м
##и
##딘
##켰
##골
##칭
##째
##습
##변
##활
##십
##몽
##갤
##팔
##렌
##값
##㎡
##확
##켄
##닛
##혀
##쌍
##둔
##밭
##넘
##돔
##둘
##멸
##폰
##율
##깡
##j
##컴
##퍼
##헬
##뎅
##탕
##で
##캅
##억
##홈
##께
##셰
##엠
##뮤
##싫
##취
##앙
##딱
##움
##덮
##밥
##된
##о
##н
##д
##붙
##덱
##랴
##봐
##금
##않
##롱
##킥
##さ
##극
##옵
##녔
##컷
##윈
##땜
##덕
##눴
##빡
##논
##첸
##쌔
##밌
##됐
##갯
##힘
##앞
##촉
##ㅣ
##찾
##둬
##언
##셩
##팬
##랐
##큰
##낮
##싱
##ー
##ン
##덴
##둥
##맵
##콜
##랭
##핵
##붕
##ㆍ
##늉
##틱
##센
##셨
##률
##특
##ょ
##よ
##く
##っ
##빈
##늘
##빙
##뉴
##é
##귀
##룰
##흐
##첼
##ㅇ
##톱
##롤
##갔
##Q
##の
##あ
##맘
##틴
##켈
##칼
##청
##휘
##몹
##삭
##싸
##껏
##털
##돌
##냥
##듬
##존
##냈
##リ
##ミ
##ッ
##ト
##ペ
##ス
##☆
##ダ
##デ
##ィ
##넷
##な
##ぁ
##に
##큐
##칠
##꾸
##깨
##죽
##쿄
##낙
##か
##エ
##킴
##젖
##낸
##켜
##イ
##썸
##퀴
##멧
##탠
##탄
##뱅
##허
##랍
##퀄
##슴
##찬
##쿼
##솔
##될
##텟
##넥
##쥬
##얼
##è
##렙
##탯
##믹
##날
##썼
##빗
##풋
##납
##휴
##욱
##뵙
##겟
##쓸
##ú
##옷
##펑
##뚱
##끄
##팟
##풀
##톤
##왈
##맺
##륜
##탑
##넣
##밤
##샵
##캄
##짓
##닌
##몰
##ラ
##ゴ
##グ
##ド
##끔
##븐
##릴
##♪
##툼
##뱃
##텍
##댔
##템
##앤
##즘
##홉
##범
##뜻
##핏
##묵
##몸
##검
##～
##못
##흉
##똥
##윌
##참
##짐
##닉
##벼
##손
##킹
##혜
##텀
##틸
##レ
##シ
##ピ
##듣
##쁜
##뇌
##욕
##엎
##죤
##떽
##윤
##숴
##Ⅸ
##꼈
##ㅋ
##냄
##찌
##륵
##휠
##턱
##효
##벅
##뼈
##줬
##껴
##퀘
##엘
##농
##ㅁ
##뽕
##낼
##빛
##늑
##샤
##햄
##웜
##뭉
##떄
##삘
##빨
##숑
##뷰
##뤄
##닥
##꿀
##붐
##괄
##춰
##갱
##붓
##넓
##젼
##꼬
##찍
##ア
##こ
##ち
##뒤
##슐
##칩
##쳤
##픕
##볕
##쏴
##짤
##튤
##헨
##혁
##뚜
##닷
##얏
##캠
##웁
##핸
##엉
##흙
##핑
##쩡
##↔
##멤
##싶
##딕
##책
##릉
##룸
##엣
##뎀
##즌
##랄
##럿
##롯
##셈
##혐
##う
##す
##돋
##낄
##훅
##눠
##벗
##롭
##짝
##융
##꾼
##칙
##숲
##췄
##젝
##ç
##탁
##렛
##럭
##↓
##←
##폿
##씩
##렴
##균
##앗
##첩
##삽
##れ
##は
##귈
##넌
##얌
##껑
##잔
##떠
##숙
##뚫
##キ
##ョ
##빳
##펌
##숔
##튀
##끈
##끌
##빅
##쯤
##팎
##흔
##좋
##잣
##ビ
##ヶ
##뜬
##Ⅷ
##셉
##ず
##궤
##ㅎ
##★
##쯔
##핫
##㎢
##닐
##횡
##힙
##ニ
##잇
##℃
##퓸
##툰
##≫
##묘
##콩
##솟
##팡
##탓
##쉈
##둠
##딴
##샹
##뚝
##ó
##①
##뜰
##홀
##팸
##숭
##뛴
##곱
##릇
##겼
##샘
##벡
##쨩
##캡
##멍
##낭
##Ｈ
##Ｕ
##뻑
##쉘
##봄
##냅
##ぽ
##푸
##땐
##걱
##닿
##및
##곧
##킵
##펄
##ä
##볍
##렷
##쥘
##앵
##깅
##텨
##バ
##웰
##찡
##깐
##ぷ
##멕
##ん
##ご
##깃
##ぶ
##ü
##곽
##딧
##쩍
##ㅅ
##ㅏ
##쟈
##팜
##줌
##넛
##릎
##꿇
##셋
##き
##お
##곶
##쓴
##챔
##헝
##덫
##み
##ね
##꼴
##펭
##잎
##봑
##룹
##톈
##닦
##뱀
##압
##앉
##엡
##듈
##웹
##앱
##쏘
##녁
##흑
##じ
##ゃ
##ど
##늬
##컫
##앜
##ο
##τ
##ι
##α
##ν
##λ
##κ
##ή
##쩔
##걀
##탬
##즐
##컥
##륨
##쥐
##덜
##ぱ
##딸
##퓨
##뻗
##넬
##쌈
##냉
##펴
##엑
##솜
##뀌
##잭
##룬
##듭
##떡
##ᆞ
##홍
##Ⅳ
##뽑
##뗀
##뉘
##캔
##눔
##떼
##챰
##뮬
##ò
##뒹
##옌
##눈
##빔
##믿
##힌
##뒀
##섭
##흣
##랏
##ガ
##꺼
##삐
##챈
##큠
##²
##젬
##렘
##닭
##쎄
##ジ
##ュ
##ム
##ي
##خ
##궈
##튠
##뛰
##럴
##쌀
##흘
##ハ
##ブ
##♥
##솝
##タ
##겔
##뱉
##흡
##벙
##엽
##쑤
##Σ
##Ø
##띠
##ρ
##η
##ς
##윙
##넵
##떴
##フ
##ァ
##コ
##챠
##뤘
##톡
##ロ
##뿌
##귄
##롬
##헀
##킷
##냔
##슘
##쉴
##ヴ
##ポ
##プ
##び
##쾌
##´
##묶
##즙
##─
##∞
##υ
##잘
##렇
##깽
##█
##○
##쨔
##ォ
##テ
##뻘
##쇠
##쮸
##げ
##ャ
##높
##슷
##낚
##싯
##≒
##쉽
##횟
##け
##꺠
##ʰ
##앟
##뒷
##넨
##ソ
##サ
##®
##캉
##だ
##펫
##ヘ
##ボ
##냘
##숨
##낵
##굼
##퉁
##ク
##퐈
##볶
##씀
##됬
##긍
##チ
##겜
##왓
##맆
##헐
##멀
##놨
##з
##쥔
##쫓
##á
##콥
##캣
##겻
##뮌
##떤
##툴
##쉐
##б
##꼼
##ㅌ
##ㅡ
##궐
##퐁
##ウ
##삿
##뜸
##왜
##セ
##훍
##♂
##젓
##ろ
##걷
##엇
##찔
##⅓
##펐
##놉
##뵈
##잌
##낀
##찹
##엮
##ヒ
##깊
##탭
##ō
##겁
##ナ
##ユ
##껄
##ö
##밈
##웬
##メ
##팍
##냑
##ê
##퓰
##깜
##ヨ
##ケ
##줍
##ᠠ
##ᠩ
##ᡴ
##ᠨ
##좆
##⊂
##앨
##횽
##낫
##◎
##ŝ
##맴
##멥
##귤
##ワ
##쿤
##댈
##댐
##옐
##놔
##싹
##닢
##쉥
##쥴
##픔
##Ω
##■
##뇨
##잼
##랖
##닳
##댓
##귐
##Ⅰ
##밝
##슝
##붉
##딪
##ı
##윽
##끗
##む
##샬
##₂
##ㅠ
##늄
##왁
##굳
##윅
##댄
##셸
##뭇
##랫
##짭
##ぜ
##ү
##ә
##딫
##슌
##ぼ
##ㅕ
##윗
##솥
##벵
##そ
##돕
##뽀
##♡
##モ
##ズ
##ノ
##ベ
##욘
##묻
##씰
##ł
##ę
##댕
##↑
##쿡
##떨
##ざ
##팽
##젯
##훤
##ゆ
##め
##눌
##쪼
##랬
##얹
##Т
##В
##│
##●
##닫
##ふ
##딥
##ğ
##③
##빚
##딤
##떻
##√
##і
##쌓
##□
##힝
##ぐ
##룽
##밋
##ぞ
##ą
##믜
##뻐
##ㄥ
##β
##ί
##ζ
##ε
##녹
##샀
##꼽
##봣
##С
##챕
##겅
##봅
##짖
##깁
##훗
##츰
##읽
##뻤
##ə
##껍
##뎃
##깍
##많
##ザ
##굽
##ば
##훔
##줏
##뻣
##촐
##쭉
##갚
##뻥
##ㅈ
##ᅴ
##빼
##됩
##혔
##뭐
##듐
##닮
##쟌
##숍
##뵌
##팥
##찜
##у
##ю
##쭈
##뎁
##벳
##ェ
##ř
##í
##릅
##짚
##섹
##㎞
##꽂
##댁
##씬
##パ
##띵
##㎒
##똑
##긋
##밟
##큘
##싴
##┃
##붇
##♀
##️
##웍
##↗
##↖
##↙
##윳
##깈
##썩
##밞
##텡
##쌤
##ž
##굿
##㎝
##푹
##맬
##엿
##ß
##넝
##ㄱ
##ㅂ
##쑥
##ゾ
##빕
##짧
##뇽
##텝
##듦
##∼
##덟
##쿵
##콰
##ネ
##삶
##멋
##눕
##콧
##ㄷ
##햇
##맸
##챗
##빤
##を
##ほ
##ɪ
##ɑ
##ː
##앳
##쑹
##싼
##ā
##♠
##좁
##꿈
##쭐
##팰
##깎
##ひ
##썰
##췌
##ヤ
##츨
##쑈
##숄
##ホ
##윕
##◆
##썽
##갛
##띄
##늠
##㎥
##Ⅱ
##⅔
##ᄒ
##랗
##뺏
##첫
##겍
##쒀
##콕
##θ
##へ
##뤼
##잃
##엥
##텁
##쳇
##▷
##겹
##ㅜ
##곗
##ь
##й
##믐
##텃
##ツ
##땄
##ा
##र
##्
##य
##퀀
##넉
##Ｏ
##ά
##μ
##σ
##옆
##숫
##꺽
##륭
##べ
##꿍
##돠
##▶
##옭
##ш
##г
##쁨
##옴
##ч
##쫒
##깥
##Ё
##ъ
##랠
##섀
##둡
##ɐ
##뽜
##ゲ
##톳
##œ
##̯
##챘
##φ
##ό
##δ
##챌
##깝
##л
##밐
##젔
##뱐
##얘
##짢
##깟
##−
##þ
##닺
##ぇ
##겪
##렵
##ㄴ
##꿧
##≪
##웦
##쓱
##え
##맷
##켐
##돛
##꼇
##꿨
##즉
##갖
##ʒ
##ŋ
##밧
##졍
##°
##챤
##땠
##뺌
##칫
##찼
##쎈
##긁
##땡
##ゅ
##슥
##５
##９
##쇽
##갸
##쥰
##쬬
##놋
##벚
##괘
##믈
##큥
##♯
##Ｘ
##х
##찢
##욜
##찻
##³
##숟
##핳
##Λ
##핍
##쌌
##씻
##쌩
##š
##뎠
##졈
##쟝
##낯
##ˈ
##엾
##녘
##я
##틑
##셍
##ぃ
##탶
##띨
##퀵
##㎜
##깻
##뜩
##쿰
##칵
##쉔
##꼭
##맡
##뺄
##▣
##샨
##ぅ
##ʊ
##②
##옮
##딛
##팁
##훙
##괸
##녈
##뮨
##샛
##탰
##꺄
##퓌
##뿜
##짠
##롸
##섞
##ń
##ㄸ
##띔
##얻
##オ
##칰
##찐
##짇
##댑
##쌕
##π
##ώ
##깄
##끅
##눅
##ύ
##č
##쪄
##냠
##넜
##땟
##뿡
##æ
##ִ
##ּ
##י
##נ
##ְ
##ָ
##퍽
##씽
##풉
##뭘
##탔
##굶
##뎐
##ф
##ц
##뱌
##έ
##낳
##쿳
##핥
##겡
##밎
##쿱
##줴
##쩜
##깬
##듄
##Ｙ
##Ｒ
##ş
##앴
##틋
##맑
##짹
##́
##뉼
##똘
##챱
##ב
##א
##헷
##쾅
##샥
##햐
##긔
##º
##ī
##펍
##쨌
##ぉ
##먀
##퇘
##텼
##욤
##ギ
##Ｌ
##ㄹ
##욧
##앓
##굵
##몇
##뼛
##셱
##츙
##쩝
##틈
##Ⅹ
##짬
##＾
##큅
##썹
##쉰
##ɛ
##à
##ヰ
##㎛
##⇒
##앎
##χ
##뎌
##낑
##윔
##켤
##삥
##땀
##펨
##˚
##썅
##몫
##ă
##얍
##ぺ
##ゼ
##랸
##뻬
##쳉
##헙
##뫼
##덥
##삯
##뷸
##ý
##ē
##촨
##ξ
##믄
##뷴
##갰
##쩐
##쁠
##힛
##좃
##욬
##졋
##팃
##듸
##쫄
##삑
##づ
##ᄃ
##ᆺ
##쭤
##э
##ㅑ
##△
##끓
##덧
##쑨
##∙
##펩
##앰
##ё
##뼘
##ω
##＞
##퀼
##삵
##컸
##ب
##د
##ق
##ا
##ی
##ر
##팻
##낱
##둣
##뺨
##ʔ
##쾡
##벞
##맜
##뿅
##멱
##Д
##첵
##쎔
##뗏
##넸
##궜
##뭄
##룻
##댜
##ĝ
##얽
##ㅗ
##쭘
##퉜
##슼
##쌰
##쏜
##뚤
##ㅔ
##츤
##헉
##뚠
##쏠
##웡
##꿉
##륀
##깠
##ℓ
##옘
##뾰
##멓
##↘
##낏
##떈
##♦
##쫀
##헥
##껌
##윰
##ᄫ
##ᆯ
##Ⅲ
##셧
##붸
##뀐
##곘
##떳
##홋
##갠
##곪
##폈
##긱
##⋯
##흰
##뗄
##뀜
##ل
##롈
##뀨
##횬
##뛸
##½
##뺀
##졀
##▽
##핰
##굉
##뎬
##ぴ
##ᆮ
##뱁
##ʲ
##ɨ
##ｍ
##Ｓ
##㎾
##◇
##팠
##먕
##릐
##И
##샙
##쐈
##덬
##ᄊ
##ᆡ
##뮴
##곁
##붜
##빴
##멈
##€
##읏
##Ⓐ
##ⁿ
##Ч
##＋
##샐
##툭
##㈜
##컹
##ן
##맢
##ᄅ
##쩨
##잊
##휼
##돤
##Н
##굇
##묄
##쳔
##켯
##큄
##푱
##슭
##뚧
##뭔
##촘
##헸
##ě
##텅
##ᅀ
##캘
##갭
##რ
##ა
##벰
##녤
##ù
##꼿
##옛
##늪
##㎏
##늦
##و
##ه
##¼
##넹
##몌
##휜
##∩
##옉
##뮈
##◉
##ŏ
##잽
##핌
##뇰
##헴
##ゥ
##죈
##깰
##±
##젊
##꽉
##⇔
##돗
##빽
##캥
##뜀
##〮
##ᡳ
##î
##궃
##츈
##쟉
##ð
##쩌
##뮐
##ת
##ש
##ו
##ע
##ה
##뒬
##댱
##젹
##꼐
##Ｅ
##Ｂ
##튿
##▲
##뀔
##켠
##쨰
##뵤
##튕
##ᅩ
##ʃ
##ɡ
##ɒ
##횅
##ぬ
##탤
##ㅊ
##꽈
##÷
##룔
##맏
##ʑ
##ㄲ
##쉑
##눙
##갼
##ａ
##ｋ
##ø
##큡
##ɔ
##맙
##γ
##짼
##￥
##ن
##ì
##몪
##뭍
##꽝
##딮
##ˌ
##̥
##쏙
##흠
##휙
##퉈
##볜
##젭
##♤
##س
##ك
##볘
##뎨
##괵
##뉜
##쉼
##ś
##껀
##걔
##숌
##멩
##П
##갹
##♣
##ْ
##ى
##ǎ
##늅
##≥
##듕
##헵
##훌
##꽁
##꿩
##콴
##ᠯ
##ᠵ
##ᡥ
##â
##щ
##훠
##＜
##헹
##켕
##쏭
##롄
##힣
##☞
##곬
##А
##ᄉ
##맟
##숏
##ش
##끽
##뜽
##Ι
##Τ
##Ο
##귁
##뇬
##∴
##ɹ
##짰
##̃
##Á
##헛
##뉠
##쩄
##힉
##륌
##즛
##０
##１
##괌
##녜
##춧
##㎑
##า
##ง
##น
##ᄲ
##ᅮ
##ᆫ
##▩
##츔
##쐐
##괭
##튬
##끊
##ὰ
##ᠰ
##ᡡ
##꾹
##깉
##늙
##옳
##왘
##낡
##Ρ
##펏
##닼
##Е
##Л
##헣
##꺾
##탉
##궂
##쫑
##븨
##Ｚ
##Ａ
##Ｐ
##럇
##숯
##왱
##췬
##샴
##줜
##م
##ʁ
##욥
##쪘
##Ｇ
##＝
##♩
##끙
##Ш
##ɕ
##깸
##헿
##샾
##◯
##゙
##㎎
##п
##덞
##눼
##쵼
##├
##뺐
##짯
##ᇰ
##잿
##त
##ु
##ि
##≠
##껸
##♬
##좡
##ⓗ
##튐
##쬐
##킁
##싣
##뷘
##뉵
##띤
##샄
##웻
##츌
##쾨
##ˇ
##쉭
##맻
##Ʒ
##빻
##얔
##🐶
##뙇
##ғ
##ŭ
##͡
##맣
##뜷
##셌
##읭
##엳
##끕
##닠
##얗
##촛
##쉠
##촙
##씹
##Ｔ
##븅
##å
##쾰
##냇
##꽐
##ᄌ
##㎖
##ว
##ั
##ช
##ก
##ี
##핼
##쯩
##뺑
##숀
##캬
##Ф
##Р
##ǐ
##¹
##햅
##ӕ
##뽁
##껫
##뽄
##읜
##뱡
##챵
##ㅐ
##뗴
##ᠣ
##뤽
##▼
##ᆷ
##괜
##숱
##ᠪ
##ᡩ
##ک
##웸
##뼉
##ع
##눗
##휄
##ㅉ
##뷁
##낟
##얕
##왠
##쨍
##ե
##ᅥ
##튭
##횐
##מ
##ֹ
##ʼ
##Х
##ت
##쭌
##ج
##ệ
##핧
##Ｍ
##ң
##ж
##♧
##굣
##퀜
##됸
##잴
##낰
##ū
##Ö
##핡
##ㅃ
##〇
##Ⅶ
##섕
##ヲ
##ר
##म
##क
##∅
##쥠
##됴
##ë
##잰
##퀠
##💕
##풂
##Я
##룀
##ｔ
##ｏ
##폄
##잤
##쿙
##뢴
##쌘
##켁
##꼰
##㎠
##켑
##２
##ᄆ
##춥
##♭
##К
##∑
##∀
##￡
##쳄
##ῆ
##툽
##틔
##ל
##뗑
##Δ
##홧
##윷
##ᅌ
##М
##Ú
##졔
##쀼
##팼
##đ
##슾
##뒈
##좨
##◀
##믓
##쫌
##ǔ
##퉤
##썻
##넒
##ㅆ
##큔
##ح
##떵
##⑥
##￦
##Г
##캰
##Φ
##엌
##Ⅴ
##넼
##뾱
##캎
##ᅡ
##됭
##몐
##➡
##µ
##⋅
##꿰
##ד
##ם
##ʌ
##삡
##ﾞ
##ｽ
##ﾄ
##옇
##캑
##꺅
##촹
##⑶
##ヌ
##♫
##뉨
##뜌
##쌥
##쨋
##콸
##７
##촤
##첬
##┘
##됀
##⑸
##쟐
##ᅵ
##젱
##욌
##ㅍ
##옙
##쭙
##잦
##껜
##뿍
##쳬
##팹
##ⓕ
##겄
##쨜
##솁
##겉
##웤
##햏
##ᆖ
##ط
##ј
##뤠
##ㅛ
##⊙
##늣
##꽥
##씸
##ﾘ
##ｵ
##ｼ
##ﾊ
##ﾟ
##ｰ
##ﾃ
##ｲ
##헠
##ᆸ
##қ
##볐
##톄
##ᡶ
##횔
##슉
##찧
##Π
##땋
##묭
##읗
##훕
##Š
##핬
##ｯ
##ñ
##õ
##휀
##퍄
##☜
##ᇙ
##훑
##솀
##휩
##Ｉ
##Ｋ
##▒
##━
##웩
##훨
##뽐
##Ｖ
##ψ
##ῦ
##ᄂ
##셤
##펼
##붑
##욀
##כ
##맫
##ө
##껐
##쫘
##ㅓ
##ⓔ
##💜
##Ｆ
##Ｊ
##땍
##햔
##갉
##４
##Ł
##ئ
##ᡤ
##ᠶ
##얜
##킼
##눞
##ิ
##Û
##ն
##얇
##땁
##왝
##곯
##븝
##꽤
##쭝
##떙
##뱟
##쳣
##쇤
##Γ
##⑨
##쏨
##∨
##ï
##먐
##윾
##©
##먄
##춉
##묜
##엤
##ᄋ
##ư
##ˋ
##ô
##읖
##딨
##ã
##큭
##ㅢ
##뫄
##밷
##읔
##컁
##⑮
##좝
##ล
##ย
##ร
##ุ
##흫
##☎
##᠋
##ᡝ
##ᡵ
##𝑒
##죵
##ῶ
##뺴
##ɯ
##뽈
##귬
##ـ
##ʂ
##읕
##갬
##Ⅵ
##쏟
##븀
##▓
##꾀
##Ｄ
##＄
##띰
##씼
##û
##큇
##ท
##▄
##쳅
##⑪
##े
##㎉
##쫙
##ʻ
##ա
##돡
##ַ
##ễ
##ĉ
##쒸
##｀
##읶
##쎘
##ヽ
##อ
##ค
##뢸
##좔
##Ψ
##뀽
##췐
##⑫
##닻
##셕
##겋
##О
##ᡠ
##ز
##ة
##웟
##콱
##❤
##솬
##ǒ
##ᄭ
##６
##빱
##똔
##꾿
##빰
##ɲ
##≤
##々
##◑
##ʷ
##்
##솩
##몀
##삔
##뻉
##쟤
##ᠸ
##└
##돚
##밣
##깼
##ơ
##랼
##갗
##ὶ
##ف
##ं
##न
##덷
##꾜
##ɾ
##싀
##튽
##쑬
##벱
##ｗ
##쎌
##햣
##ㄧ
##ㄢ
##닯
##퓽
##쨉
##랲
##َ
##غ
##ِ
##졷
##Ц
##퍅
##Ｃ
##ć
##덪
##칲
##뗐
##겆
##햝
##➰
##륄
##슙
##̚
##ᄇ
##찿
##😍
##쉿
##엪
##푈
##씁
##쟘
##퓐
##옼
##ⓐ
##㎍
##⑧
##쎼
##̈
##짙
##읊
##큽
##є
##밉
##گ
##쳥
##̶
##ᅳ
##숩
##➔
##솃
##캌
##녠
##£
##빋
##퀑
##됫
##ɫ
##ὴ
##⑤
##⊃
##뵐
##씐
##ّ
##홓
##걍
##ㄛ
##몆
##ｉ
##튈
##ħ
##좇
##툐
##쿈
##✿
##쨘
##넙
##เ
##ม
##쿽
##ⓒ
##ⓑ
##쯧
##섶
##욺
##귓
##혓
##볏
##ﾝ
##ｩ
##ﾀ
##ｶ
##낍
##픠
##띈
##ი
##დ
##⌒
##쌉
##꿋
##░
##퓩
##إ
##Ю
##얐
##앚
##ῖ
##굥
##ᄀ
##츕
##͘
##츳
##ｅ
##ლ
##ე
##ს
##왐
##أ
##씅
##स
##ी
##É
##욍
##ἰ
##멬
##ｈ
##ゐ
##슁
##ᠮ
##멨
##샜
##ㅝ
##¥
##봬
##찣
##튄
##ﾉ
##ｧ
##ˊ
##ộ
##Ä
##뭣
##촵
##웽
##컽
##ᅟ
##ᆨ
##ὐ
##ὸ
##솊
##묾
##¸
##व
##ส
##ㄨ
##ւ
##쒔
##솨
##Ｎ
##④
##ʀ
##ㄣ
##쯋
##옻
##ק
##ｎ
##ｒ
##죌
##̞
##캤
##멎
##ㅟ
##︎
##웝
##푯
##됏
##볌
##ⓝ
##짊
##롹
##쁩
##렜
##솅
##팤
##Ō
##틍
##ｸ
##ɣ
##↕
##ἶ
##３
##띡
##윱
##８
##끎
##₩
##햘
##Ε
##핲
##믕
##Α
##삣
##볓
##퓔
##혤
##죙
##̴
##̸
##ｳ
##ｪ
##ｫ
##얶
##㏄
##겊
##띌
##◁
##뺸
##🏻
##ｱ
##⑦
##땃
##◈
##쪙
##ｕ
##ص
##섣
##냣
##پ
##მ
##ო
##ბ
##̩
##✕
##툿
##꿘
##∥
##쬘
##ᠴ
##｜
##ἱ
##끠
##ㅸ
##ր
##뺩
##ո
##ㅚ
##뼝
##샅
##Б
##퉷
##З
##ế
##ぢ
##넋
##쇳
##뜹
##ヂ
##İ
##Ü
##긷
##ㅒ
##ㅖ
##ㅘ
##ㅙ
##ㅞ
##♨
##툠
##┐
##쐬
##쥿
##홰
##엊
##쎾
##늡
##뺵
##Ｗ
##펰
##섵
##귿
##ヅ
##쑴
##떰
##뷜
##̵
##뻇
##푀
##퀭
##챨
##즤
##좍
##Ç
##ὲ
##죔
##휭
##솦
##풔
##ɥ
##ż
##≈
##뿝
##옅
##ˤ
##앝
##몃
##ｓ
##ㆆ
##갇
##햤
##뭅
##ἀ
##≧
##￣
##벛
##Ν
##눝
##♚
##ﾌ
##킅
##잆
##ᡨ
##뙤
##⑩
##Ş
##У
##맠
##뙈
##ㅤ
##앺
##꺵
##쨀
##똣
##똬
##섈
##꿴
##ᄠ
##몯
##จ
##ნ
##솎
##ᄢ
##텻
##뗌
##ᄯ
##흭
##녓
##∧
##뵹
##읻
##쳰
##솓
##꿏
##걲
##뎡
##ㄩ
##✈
##쫗
##Κ
##읇
##꿎
##칡
##큿
##쏼
##ヱ
##븜
##흄
##춍
##̀
##͜
##̷
##Υ
##걼
##퐄
##퐝
##폽
##쏩
##덯
##떱
##횻
##퓬
##섄
##봙
##ㆁ
##🌙
##Μ
##Η
##넗
##ુ
##씡
##켬
##ᄎ
##궉
##홱
##ֵ
##껨
##뭥
##쵤
##Χ
##⠀
##뷀
##핱
##⑵
##뺘
##흩
##큣
##ᅦ
##깹
##홑
##텄
##넖
##앖
##젋
##ｴ
##읎
##틉
##훵
##쳘
##솰
##ƒ
##앧
##칯
##뭬
##챳
##✯
##궨
##읃
##읺
##☠
##섥
##횃
##┗
##갞
##👍
##흴
##ㄻ
##ㅀ
##똠
##ㅄ
##ɸ
##ㄳ
##뚸
##곂
##ゑ
##Θ
##땔
##쨈
##آ
##휸
##ㅿ
##솽
##¾
##삷
##쬔
##뒴
##떫
##쟀
##앏
##썡
##묠
##휨
##듁
##촥
##쌨
##큉
##낢
##뎊
##뭡
##ㄺ
##╋
##Э
##븟
##휑
##훓
##짫
##ɦ
##짦
##Β
##ⓓ
##픙
##춈
##ᇚ
##쏫
##엶
##돝
##벧
##ᅣ
##왤
##✝
##벋
##휫
##🐥
##섐
##엷
##₡
##벴
##썪
##쐰
##뱄
##꽌
##쉣
##ὑ
##뀝
##◕
##쐇
##툇
##꿸
##쓩
##Ó
##쟨
##Č
##ἔ
##뮻
##믾
##Ἀ
##읆
##┌
##Æ
##뚯
##ɢ
##뵘
##⑴
##콯
##Ж
##ຈ
##✓
##À
##튱
##〓
##҉
##ἄ
##쐴
##∇
##쥑
##으로
##에서
##지만
##하는
있다
##었다
##이다
##에게
##하고
20
##한다
있는
##했다
때문
##이라
##는데
##면서
한다
##들이
##하게
##까지
##에는
201
때문에
##에서는
경우
##하다
##적으로
##으며
아니
##리고
자신
##다는
##적인
##해서
사용
이후
##레이
##다고
##하기
사람
##부터
##대로
##00
##하면
공격
##하여
정도
##이나
다른
##였다
##들을
##들은
하지만
##라는
된다
##으나
##지는
##에도
##스트
##기도
그리고
##기를
##들의
것이
사실
19
##리는
##라고
등장
##기에
하는
##다가
들어
가능
##하지
##하며
##되었다
##는다
같은
10
게임
모습
하나
##거나
##되어
##보다
아이
그러
나오
##리를
생각
##기가
##어서
함께
시작
대한
없다
문제
##았다
만들
것을
위해
##된다
##되는
##력을
##에서도
##니다
이상
##릭터
##력이
사이
있었
또한
되었다
##스터
가장
없는
한국
캐릭터
상대
##리가
다시
상황
##처럼
##으면
##지고
##지를
따라
이름
일본
결국
당시
##이라고
##이라는
##기는
것이다
모두
했다
보면
보여
다만
플레이
많이
##이트
##이고
그런
상태
자신의
##이며
것은
것으로
12
모든
하고
##이는
##자가
존재
프로
##이었
##스를
200
있었다
상당
##하면서
시간
##스가
매우
##므로
추가
그러나
나온
##스의
##성이
##er
현재
##이지
물론
##되었
전투
아니라
많은
그래
##들에게
자체
##인다
##라이
이런
실제
##가는
아닌
그렇
##하였다
11
이유
카드
스킬
##인데
##인이
이용
거의
##인지
##가지
모습을
처음
바로
##리즈
시즌
##들과
돌아
이미
않는
##진다
##지가
역시
##부분
##이지만
효과
##하자
되어
여러
아무
있으며
##에선
특히
다음
##시키
##사를
선수
주인
세계
않고
필요
##졌다
##in
##도가
##린다
##이었다
있는데
##어나
떨어
##라도
라는
##리아
##기로
##사가
이야
##하지만
좋은
##지막
##학교
같이
라고
##주는
##아서
##해야
##상을
진행
##했던
일반
15
해당
경기
기술
수도
달리
##8년
시리즈
부분
대부분
##이가
기본
그냥
##리스
마지막
정도로
기록
마법
되는
않는다
##장을
어느
통해
계속
##으니
주인공
피해
##0년
##7년
상당히
##전히
하다
인간
라이
##로는
않은
올라
##성을
보고
있을
가지고
미국
참고
비슷
수준
만들어
지역
작품
##6년
##어가
사건
않았
보인다
##했고
##on
있고
##이스
##르는
##드를
것도
방송
인해
일부
대신
관련
##있는
##렸다
내용
이전
##트를
##되고
영화
100
##들도
##드는
제외
##거리
##수가
지금
능력
그대로
##정을
##려고
성공
너무
스타
있어
높은
대해
##지도
##5년
유저
그녀
이를
경우가
있지만
없이
제작
##시에
30
원래
언급
##장이
##자를
많다
##마다
자신이
여기
나오는
##인의
직접
위치
##리에
인물
##스는
##주의
##시아
##도록
방어
##하는데
##와의
##었고
##르게
레이
##수를
##an
엄청
##스로
##시간
18
##or
자기
##과는
활동
16
##하였
받아
##없이
좋아
이어
##4년
과거
이는
##도를
##드가
##자의
나타
등의
##정이
##전을
이동
##중에
애니
실제로
있던
##준다
##치는
##위를
데미
##서는
##도로
의미
##he
##습니다
나왔
장면
초반
##사의
중국
##at
기준
##하던
시절
타이
멤버
##드의
그의
전체
참고로
##로운
선택
13
대표
제대로
##리의
##음을
##ar
이것
크게
관계
찾아
##있다
##이션
있다는
조금
평가
##트가
199
알려
##이기
##점을
감독
국가
나온다
말을
최대
유닛
지나
스토
##치가
몬스터
만든
##리어
##대를
전부
보여주
##치를
##기의
##리지
##화를
유명
이에
##인을
##이자
비해
자주
아니다
##자는
이때
##하기도
##만큼
해도
증가
##와는
##이를
소환
동안
##원이
불가
14
##번째
##히려
레벨
사라
적이
방법
그런데
당연
아버
##상이
##어난
의해
있어서
전쟁
오히려
강력
하지
##되지
게다가
아직
가능하다
##대의
##전에서
##3년
##했을
최고
설명
이렇
##우는
##전에
결과
비교
일단
아이템
25
##같은
학생
##격을
##자로
17
정말
기존
설정
서로
영향
마찬
##했지만
##는지
서울
사람이
##en
그것
마찬가지
주로
지원
##나는
##으로는
파괴
##다면
##2년
출연
때문이다
아예
가진
##분에
하며
개발
2018년
##하려
하면
중요
인터
##식을
어떤
##동안
되고
##지어
위한
##나마
발생
후반
친구
##어로
역할
않았다
학교
살아
좋다
2017년
이벤
알고
이러
##과의
##였던
사실상
##하거나
보통
##오는
무기
정신
##머니
포함
##점이
##le
##었던
##9년
##명을
힘들
이루
사망
##명이
##ou
이번
##일에
운영
최종
##화에서
##드로
2016년
들어가
본인
##th
##보면
그래도
그래서
심지어
유일
##이어
플레이어
##스타
비슷한
가까
50
성능
바람
##에서의
어려
##르면
##시켜
완전히
만큼
여성
이렇게
##했다고
있다고
먼저
발매
부족
그렇게
바뀌
유지
##이기도
행동
모양
공개
드러
전혀
##물을
##이크
##나가
활약
한번
##르고
결정
##더라도
발동
##스와
##간다
##1년
동시에
소속
##구를
##밖에
등을
형태
마음
없어
##트로
주변
##국의
성격
어떻
##수의
##지로
일이
##st
되었
##화가
그나마
##상으로
##사는
회복
노래
##지의
굉장
##간에
##자인
변경
출신
##이드
공식
##내는
내려
##임을
불가능
때는
##대가
##원을
덕분에
##대에
얼마
##보다는
어떻게
##어버
이라는
우승
원작
드래
전에
프리
위해서
##적이
##스템
리그
##이터
정보
2015년
만나
강화
확인
아래
##라의
경우도
힘을
확률
이러한
슈퍼
작중
문제가
도시
##라가
##al
쓰는
##로서
##른다
특수
얼굴
있기
##명의
##시킨
##겠지만
자신을
했지만
자체가
실패
##해도
혹은
사랑
연구
##트의
하는데
영웅
##전이
이야기
방식
##한다는
##했는데
노선
##조차
##리그
##군의
보스
해서
발견
주장
패배
여자
##ing
##움을
##으므로
##정도
여담
##운드
새로운
난이
##어도
##라면
##력은
21
받고
없었다
차지
##id
움직
##라마
승리
가져
공격을
##메이션
장비
반응
시스템
최초
문서
같다
사회
##체를
##어를
굉장히
않아
입장
정확
적용
으로
없고
##했으며
##리카
자유
독일
##re
기억
밝혀
에피
##지에
##이었던
확실
있게
넘어
##했다는
국내
사진
##리오
강력한
##량이
음악
마찬가지로
이제
특성
기사
그리
##치고
##문에
못하고
에서
사용하는
##아가
사람들이
스테
않다
순간
엄청난
##이라면
애니메이션
시점
등장하는
198
어렵
편이다
나가
동일
##개의
모델
에피소
표현
받은
가지
##구하고
시간이
인정
마을
우리
##한테
더욱
상대로
22
무시
가능성이
등이
단순
프랑
가능한
##대한
##그램
분위
나와
대해서
대체
##려서
##놓고
##스러
##가가
못한
구성
계획
지속
약간
##장의
##들에
##이의
##타를
수비
##으면서
쉽게
따라서
아주
##만한
##프트
##했으나
24
주의
스트
##수로
사용할
훨씬
당연히
드래곤
##감을
영상
벌어
쓰러
##문을
분류
다르
이루어
##지지
##제가
특징
##니까
진짜
##디오
2014년
자동
이름을
##통령
아마
남자
자세
기능
7월
출시
생산
##부의
그림
불구하고
경찰
정치
하자
패턴
활용
8월
##까지는
##도는
앨범
##ic
12월
위험
##랜드
판매
##났다
4월
어디
하루
있었던
40
##등학교
혼자
##원의
다양
성우
##수는
여전히
##제를
비판
또는
가는
나머
##적을
피해를
여기서
잡아
담당
현실
따르면
수가
##듯이
폭발
##없는
5월
취급
보내
알아
개인
동료
9월
##체가
월드
말이
버전
6월
##스크
차량
##군이
##으로서
##사로
문제는
##되면서
배우
##히는
남아
주는
대통령
##it
강한
##부를
##겠다
##리로
적을
우주
##도의
##시키는
##치로
이벤트
##리기
후에
참여
도망
의견
##나게
##계를
10월
##선을
##해주
시청
잘못
##회의
중심
보는
어머니
어린
##권을
데뷔
3월
1월
##프를
##상의
##is
the
##리와
건물
##겠다고
일으
##보니
2차
대학
##장에
경험
일행
준비
##부에
경우는
받는
각각
##식이
그는
선발
드라마
들고
결혼
되면
##개를
##심을
하이
##져서
여담으로
##난다
상승
해결
충분
##라를
23
사고
바이
감소
진출
조합
##니아
이유는
그를
##이면
이라고
영국
##한다고
이해
느낌
##갔다
##초에
역사
최근
않을
##0년대
요구
가면
##라서
보이는
초기
##만에
##로를
발표
##기고
##ad
##되며
##키는
논란
하기
받았
체력
지구
##대는
밖에
처리
##자기
11월
##하다는
##경기
것에
스토리
##수록
대회
라인
그가
설치
과정
대한민
가족
##장으로
고려
##위가
스스로
##만이
클리어
##장에서
다니
하면서
##업을
오브
##시즌
##es
등장한다
역할을
##가를
##레벨
##트는
조건
일정
대미
##위로
##nd
후보
발사
공격력
되지
타고
2017
##제로
이유로
가끔
오래
한정
낮은
퀘스트
기준으로
##말로
##장은
##로가
만약
부활
전작
##리면
##하나
방향
절대
##다니
영향을
수록
##레이드
##되었고
##ac
##부가
마이
파워
2월
##성은
##하다가
##스에
##마저
다이
엔딩
##지게
##력으로
##유의
2013년
##리티
프로그램
중에
높다
아니고
##만을
가격
능력을
보호
얻을
##에게는
##려는
자랑
싸우
정도의
스페
대부분의
참가
방영
##당한
바람에
구조
나왔다
##같이
미션
반면
한편
##구가
메이
제공
##일을
##라인
##게임
항목
##el
아군
좋지
##합니다
중앙
중요한
##자들이
상황에서
##신이
정작
##피언
##mm
더불
##데이트
##이로
##리며
아르
##신을
##였고
##학생
##버스
다르게
나머지
해야
생긴
일을
블랙
나름
거기
생존
목소
##학년
작은
추정
조선
오른
##가의
##어들
##었지만
크로
##으로도
제국
##전의
##하다고
별로
업데이트
##냐고
##함을
사실을
##점으로
모습이
##우스
특정
##외로
##시를
##성의
비롯
분노
나무
##인은
##들로
계약
제외한
획득
##지기
##일이
예정
##나라
현대
##비가
특별
제한
##티브
위에
##이라도
하였다
챔피언
##왔다
애초에
러시아
##여서
##리게
자리
##주고
##음에도
생활
지하
신경
항상
더불어
##기와
배경
에피소드
끝나
##사와
무엇
28
만화
26
빠른
##의를
##위에
##어야
메인
있으니
소모
##ig
따로
못하는
사람은
있다면
각종
일어나
아버지
다양한
검은
##조건
보이
##었는데
시도
##소를
상황이
##스럽
27
유명한
##ro
##겼다
나올
이걸
자연
갑자기
전용
연결
않게
장착
##ed
구간
식으로
적은
만드는
이상의
모드
근접
##었다고
##버린
국민
압도
##행을
하여
게임을
없을
##동을
나서
번째
2012년
##더니
000
연속
종료
##idth
##물이
##버렸다
##세를
##사에
괜찮
것과
인터뷰
##크를
##되기
유리
##비를
마스터
이쪽
##움이
효과를
경우에는
두고
최소
##내고
소설
물리
아이돌
북한
나는
##상에
##ay
나이
##BS
교육
이게
##단의
불러
##지면
배틀
본인이
##회를
##시가
히로
현재는
포켓
##야말로
사용자가
##스러운
달려
내가
예상
유럽
하게
##고는
이용해
연출
##미가
에너
받았다
##진을
이다
##호가
##수한
못했다
묘사
##선이
있으나
말한다
##ion
성장
이외
이름이
전반
정식
##관이
##해진
번역
물건
##시의
제일
시전
##마가
##버린다
반대
##단을
기본적으로
없다는
뒤에
2000
보니
대전
##am
등으로
전차
##율이
모르
누구
있으면
크리스
##부터는
수정
전문
##원으로
##마의
##진이
비행
나타나
유니
##주를
이후로
부르
최강
##시켰
기대
##지션
##시로
대한민국
차이가
브라
계열
나중에
##as
##운데
아니면
조직
##냈다
##리자
선거
TV
세이
##고를
##마자
이끌
width
##종의
했으나
탈출
##냐는
말에
##았던
이야기를
##이즈
##지라
##타로
지켜
잠시
of
죽은
스피
공중
안에
훈련
파티
##인물
상위
##입니다
듣고
없다고
##혔다
목표
근처
확정
빠르게
수는
포켓몬
공연
빠져
가까운
출전
본래
달성
##ol
준다
전설
운행
##원은
##단이
197
주요
##라운드
##계가
필요한
##호를
상당한
지휘
달라
미사
특이
위의
존재한다
29
봐도
자체는
##무를
##보는
집중
##부로
안정
여기에
##프가
갖고
등장한
##었을
부모
##크가
날아
##크로
저지
##계의
발언
사냥
교체
머리
포인
##정한
최고의
##감이
상태에서
60
무슨
##자와
했던
비밀
##서를
없지만
보아
중에서
알게
##임이
워낙
SK
##인으로
스파
연기
포기
사례
##미를
##한다면
기간
##il
삼성
무려
지난
##어의
##이니
새로
예를
명령
##드시
1년
미래
유일하게
쓰고
보여준다
경쟁
없어서
##신의
남은
때마다
##타가
##량을
타입
##낸다
개념
##시는
제외하면
점을
##나의
##카이
##지면서
의외로
변신
있었고
##심이
되는데
언제
##터를
부산
것이라고
그녀의
##하였고
직업
##우가
효과가
##대학교
2011년
##부는
##도에
500
받을
외국
소개
아무리
조종
심각
그야말로
이건
경제
소녀
했는데
느끼
바꾸
완벽
분명
##et
##였으나
생각해
민주
추측
기다
제거
상관
다소
사람을
많아
연습
##들어
프랑스
반대로
무조건
##us
보유
점점
축구
굳이
뛰어난
##으로써
부정
한다는
##소가
시작했다
직후
반드시
몇몇
##력과
##상은
듯하다
카드를
데미지를
##ow
높아
마무
도중
관리
타격
##세가
##온다
충격
스테이지
지방
제목
이탈
31
완전
##탄을
유일한
과정에서
있었는데
##지와
항공
살해
다크
##공격
##om
##문이
##것도
##디어
맞추
올려
##되면
않으면
탓에
케이
자리를
업그
##즈의
야구
생각하면
##명은
##시킬
앞에
##레스
2010년
평범
##많은
접근
##겠다는
##다운
##프로
결승
문화
부탁
##롭게
돌아가
##에만
##이란
##때문에
다행
비중
완성
##용으로
소재
##술을
싸움
종종
상태로
The
##역을
대사
중간
소리
일러
되었고
각성
시간을
충분히
그걸
경기를
기동
다루
##키가
##터가
##점은
우선
평소
클래
판단
능력이
##원에
##였지만
##보를
제1
##트에
기체
고정
시험
##어진
300
지지
in
삭제
거기에
특유의
##px
##방송
##드와
정상
##로의
##군을
##치의
##만의
##버리는
있었지만
부여
졸업
##BC
도와
동생
##수도
끝에
복귀
카운
과학
1차
처음으로
##군은
사용한다
##차가
기관
##주가
듯한
도착
수많은
개그
##두고
해외
빨리
죽음
##되었으며
좋아하는
돈을
어려운
전략
종족
배치
##받은
##려면
싫어
주고
녀석
##모가
않지만
##이므로
독립
##스티
##위원
가서
인터넷
보기
##받는
부하
화면
보다
건설
하늘
점이
##마를
소련
##보다도
명칭
##개로
끌어
기반
##드에
영어
##선의
서비
중반
사이에
대기
맞춰
##보고
발전
장면이
것처럼
나라
합류
##키의
수행
최후
버그
아프
##래도
참조
운동
유사
추천
##화의
전국
종류
나오지
##판을
힘든
제품
표기
체력이
##주로
도입
##했기
적의
지키
스포
##크의
디자인
팀의
구매
35
##ve
그룹
가르
본격
외에도
이곳
2018
본인의
건담
남성
##분이
암살
##지며
얼마나
치명
##방을
촬영
연합
투입
아들
싱글
연재
##세대
이라
사람들은
꽤나
오버
##에게서
포지션
##적으로는
아니지만
무한
이하
##트와
무리
희생
##러가
파이
대결
##적이다
##제의
이로
##간의
입고
##질을
##하자면
##형을
오늘
##위는
##향이
##개가
일러스트
특성상
기존의
떠나
##화된
회사
얻어
##하려고
실험
##트에서
불리
인한
이적
##차를
했고
사기
어느정도
받는다
막아
의하면
공포
##나를
패치
붙어
##지에서
##치게
등장인물
80
아카
지배
##시키고
컨셉
##이와
가깝
수상
때도
대상
말하는
위협
치료
##모를
##비아
##식으로
되면서
국제
타이틀
1일
##카와
로봇
맞는
엘리
이기
##금을
올라가
생명
##스에서
##카가
지도
##부에서
##플레이
운용
##든지
경기에서
정리
일본의
주민
단순히
##쪽으로
말았다
서술
모르는
손을
##트라
간단
##됐다
빼앗
##경을
탈락
##력의
##시킨다
평균
어둠
뛰어
가운데
##모로
앞에서
시리즈의
감안
기계
지상
있었으나
제2
미니
적절
조작
무장
옵션
요청
도전
군사
데려
그저
##을때
대단
선생
이름은
##었으나
꾸준
몸을
살아남
점은
비롯한
##니티
오프
영혼
고양
##성에
앞서
##문의
아키
날려
아내
스크
목숨
196
먹고
##로우
##이라서
범죄
##한데
오리지
모습으로
라이브
##이닝
딱히
작가
##해진다
##대학
카이
부분이
##만으로
##관을
1번
리더
회피
##하니
전사
거부
##승을
기타
아쉬
내에서
지금은
하나로
바닥
##었다는
맞아
사태
관련된
##답게
아는
안전
이름으로
상황을
##방에
##졌고
확실히
자신은
##하므로
오랜
##인과
나쁘
##로그
##도와
상대가
대형
불과
##놓은
##세계
캐릭터가
##정에
##역으로
근데
##스케
저격
##em
##스테
##정으로
에이
후속
히어로
스킬을
롯데
보였다
##이었고
시나
패러
다르다
공략
##원에서
##안을
##자들은
##스럽게
LG
##화에서는
있지
개조
##다른
미리
적극
나오고
##회가
##미의
언론
트리
##하도록
##전으로
##나와
##았고
##워서
마무리
엄청나게
##즈가
블루
인식
반복
동물
역대
장난
하드
트위
##ER
인기
자세한
##에게도
조사
걱정
HP
##ec
##리면서
##힌다
프레
선보
이유가
##음이
소유
손에
무너
최초로
영입
##자들의
초반에
##실을
그럼
2000년
그때
##시브
공간
붉은
##성도
마치
70
##연히
월드컵
장갑
제압
사는
악마
받지
바다
##나이
점에서
점프
##구의
##개월
불안
비난
##률이
정규
##세기
본인은
만다
버스
32
##체는
종교
누군
차이
죽을
##석이
대중
##트롤
저항
몰아
##ht
파일
##우고
좀비
없기
##토가
대응
돌려
1위
유튜
##해졌다
서버
##르의
1회
앞으로
맞고
홈런
##지자
##하려는
예전
##화에
##진의
##로도
##ot
일은
표시
때까지
통합
대해서는
작곡
##어는
등에
보조
인천
대놓고
적에게
사격
##법을
2년
##분을
##약을
2016
##인들이
베이
선언
인기가
##보자
##텐츠
눈에
##르가
이후에
다운
##시마
##코가
컴퓨
화염
비교적
진입
마음을
거대한
위치한
##아의
마침
어찌
##성과
확장
상징
사람의
도움을
일어
##키를
45
카메
그려
원거리
to
논란이
##ir
##형이
오리지널
최대한
##력에
##였는데
2번
시설
그에
바라
네이
##동생
무사
##이었으나
장소
작업
##고가
방해
못한다
시작한다
이야기가
필요가
##석을
##쳐서
##시피
90
##과를
팀이
플래
아스
##임에도
관한
확률로
겨우
생성
문제를
##구에
##하라
힘들다
프로젝
전통
##판이
##론을
레드
아무래도
##패를
살인
일반적인
##자에
상처
스코
그린
재미
##제에
만한
##쪽에
환경
##일의
194
##림픽
##카의
##체의
되기
평범한
어렵다
극장
원래는
##까지도
가게
##용이
대비
##복을
##역이
추가로
다름
수밖에
걸로
대화
필살
##었으며
미드
##리온
서브
봉인
애매
##대전
##스토
대표적인
타이밍
잠깐
St
요소
##코의
##로부터
기술을
##악의
때의
정보를
부르는
잡고
전개
데이터
속성
정부
밀어
있습니다
보너
##명으로
노력
되며
##용한
확보
바꿔
##로드
##인가
##적은
##쳤다
생기
타카
##정은
인류
##즈를
##대에서
##스에게
##시한
이용한
평가를
무기를
걸어
##친다
##단에
##히고
은퇴
뭔가
투수
데미지
##하게도
변화
알려져
##루가
##료를
까지
지니
물어
밝혔다
##와서
행정
##전쟁
게이
보이지
범위
소년
먹는
끝까지
끝난
##타는
거짓
밸런
오르
##왕의
##회에서
발휘
컨트롤
점령
##인지라
만들어진
75
본편
자신에게
고통
##전은
당장
이들은
##구는
시기
느껴
나이트
말고
크다
상대의
##아버
시민
기념
##목을
주문
코스
이탈리아
##력도
한다고
##상태
승리를
##렸고
라며
게임의
##러를
모아
지닌
속도가
보여주는
모티브
사업
넘어가
##방의
##라와
자기가
##im
2009년
전기
그만
##호의
##ent
갤러
##해를
##달라고
##ut
중심으로
##트리
궁극
위에서
죽이
##것이
뒤로
##ight
제외하고
부담
떨어지는
수준의
어울
기업
##스킬
##단계
##동이
뿐만
거두
통과
지적
##받고
##정의
##장과
이전에
##공을
도움이
게임이
##기만
##게도
사무
##발을
바뀐
처음에는
그렇다고
진화
##크래
직전
바뀌었다
떨어진
상대적으로
대답
##할때
##레이션
##그룹
##터의
상대를
병사
소리를
##이에
중에서도
버프
##대표
상황에
늘어나
##던가
데미지가
꾸준히
보병
지정
뿐이다
PC
등등
##이상
이와
온갖
##od
힘이
짧은
##포를
##ch
등급
##스코
끝내
인기를
##PC
미친
##이었지만
##기사
줄어들
내용은
그녀를
공동
##주면
##질이
효율
생겨
사용한
##가로
용병
##있던
문제로
하나의
##ur
흡수
##라우
커뮤
나누
모른다
사실은
멀리
엔진
게시
##함이
필수
멀티
하나를
멸망
##티어
명중
장기
##바로
없으며
없게
전환
팀을
떨어져
집에
그다
속도
개봉
##락을
##이던
##미는
##에서만
바탕
정의
시나리오
##계에
##느냐
내용을
부대
처음부터
분리
##권이
##일차
이후에는
코너
인도
##km
광역
36
배신
습격
##일부터
##리안
##차피
##물로
##론이
어차피
곳에
있으므로
콤보
얘기
##서가
남편
##ag
작성
희망
##먹는
##ST
금지
플라
공격력이
최초의
솔로
##우의
##심히
추가된
##일은
때부터
##라며
형태로
활동을
어쩔
젊은
##un
도쿄
방문
##하러
원하는
일어난
##각을
대구
모자
사건이
##품을
코믹
더블
##향을
스카
보여줬
전술
##조의
아름
유튜브
측면
요리
쉬운
시대
##레인
밀려
부터
관통
09
않기
자살
않으며
듀얼
##세이
중간에
##회에
사이에서
은근
##하긴
하나가
살짝
##세요
##오가
거절
##전에서는
흔히
##산을
오토
유도
##되는데
상태가
##상에서
대다
때려
##았지만
##파트
포함한
카드가
지옥
##기인
##프의
임무
파악
##마트
모험
비록
눈을
연장
시점에서
2008년
개최
##사에서
난이도
박살
##었기
탑재
거대
##토의
열린
고대
들어오
머리를
확률이
##적이고
업그레이드
##권에서
##규모
브레이
##언을
지금까지
##러스
##거리가
약한
##자들
##선에
##크는
그럴
수호
때문인지
보급
그다지
받아들
로마
33
##어져
했다고
누가
나오는데
당황
아이템을
납치
##페이지
마리
이것이
스펙
트레이
않아서
##리에서
##자에게
못해
덕에
실질
##격이
안타
구입
##토를
활약을
레이저
##ver
##하기에
중이다
설득
고속
길을
내용이
정책
00
존재하는
와중에
의심
사람도
##끼리
강제
195
st
디자
차례
플레이어가
여러가지
안되는
##량의
패러디
우려
둘이
안습
해석
말도
##일로
2개
허용
##야마
##프레
투표
훌륭
시작한
##TV
버티
만들었다
##조가
비하면
들어가는
프로듀
하다가
소울
##되었는데
약속
사쿠
##으로부터
##골을
##자마자
디지
마르
##000
필드
그레이
뒤집
오는
동아
일부러
뽑아
구축
##제는
그것을
고민
모션
당시에는
##해주는
편집
##수와
가슴
하기도
##판에
고등학교
##우를
내부
동맹
방면
구분
##렀다
눈치
##10
않았고
초대
야마
단독
##치지
착용
증거
##긴다
##판에서는
이란
놓고
보여준
떡밥
미국의
마나
열심히
라이트
불리는
이상한
기절
##카드
##랐다
아웃
순식
##자들을
정도는
##ack
사람들을
내내
##버리고
##시켰다
신체
보컬
원정
##등을
등록
##라리
##생을
채널
폭탄
##ik
카페
그런지
패치로
주인공이
교통
도로
쓰러뜨
진영
것이라
쓰지
##웠다
##르기
##아웃
한국의
2019년
스탯
##스트를
스위
어째
##수에
공격이
외모
##위의
##되기도
숨겨
FC
마지막으로
부상
액션
스포츠
간다
탑승
여름
##시티
##생활
드라이
아프리카
하던
##체로
##일러
##타의
##성으로
##루를
##방이
##서의
##지역
공통
늘어
##라이더
##면서도
에이스
패시브
그게
순식간에
입은
설립
정말로
있긴
##세의
완료
만들고
위로
스케
##오의
##호는
스탠
##식의
사용하면
사실이
나쁜
##ak
카오
던전
##관의
따른
링크
반영
두번째
가정
무력
얻은
##신은
##스트로
개편
요시
필요하다
들어간
사과
##였으며
사람들
서포
파트
##치기
##았다고
그동안
##당이
##치에
##하의
##하기로
##구로
다행히
그만큼
해주
책임
있도록
##였다고
어쨌
무서
해군
##야가
일종의
부른다
태양
##았는데
##기에는
방식으로
댓글
치고
##점에
생각하는
커버
보여주었다
난이도가
붙잡
그녀가
라이벌
받게
연주
##았을
싸우는
##권의
##구나
싶은
정글
외에
##소녀
혼란
마사
들어서
랜덤
##계로
전체적으로
##님이
##당의
##국이
데스
##급의
##시대
##ine
없었던
##것을
##고등학교
데이
것이라는
인간의
선정
메가
3년
EX
부분은
걸려
초월
히트
많았다
주력
##모토
##받아
수요
개선
버튼
옆에
##판의
데리고
의한
많고
조준
무난
##보단
##원들이
한때
##비의
커뮤니티
유우
왼쪽
라디오
여행
##량은
##화로
뛰어나
적도
행동을
##조를
화살
계속해서
쓰면
대공
속에서
##점에서
캐릭터의
##분류
##카를
##야의
BG
그것도
##PS
재료
##도시
명의
유저들이
KBS
이것은
and
핵심
아무런
다음과
향해
3번
##바이
삼국
##선으로
말한
##시간이
광고
컨텐츠
알려진
##말을
만족
편이
##학과
##루의
1000
황금
벗어나
동일한
타임
압박
##해지는
쏟아
역으로
쓰레
의미가
의도
로켓
중단
##치와
##만은
##교육
실제로는
설계
선배
돌파
##차로
이들이
만난
##하지는
강조
귀족
가수
##디션
##해져
와서
얼굴을
##군에
붕괴
34
괴물
해설
페이
##타임
거쳐
##할수
##했다가
사령
##아를
수준으로
##니가
역전
카즈
##크래프트
##소년
거기다
##사이
##사인
근거
오프닝
돌진
계산
못할
하위
이쪽은
의견이
절반
##도우
2007년
지급
마지막에
드립
공을
충돌
th
갖추
##악한
##cm
위해서는
##미널
##시오
아무도
맡은
##증을
부족한
성능이
1위를
##들에게는
1개
크리
바탕으로
실력
아닐
기획
디스
에너지
케이스
재능
캐릭터를
재생
##란드
소비
01
되자
위키
주어
##선에서
떠올
컴퓨터
보이고
견제
몰래
다니는
##내며
국회의
##IA
당한
##20
반란
건너
관광
넣어
##이었는데
제안
최악의
10년
추정된다
##들이다
모습은
드디어
MBC
##능력
괜찮은
you
정확히
음식
마련
여러모로
##기에서
##되었던
돌아오
본격적으로
혼자서
방송을
어그
집안
쓴다
보이며
##색이
채용
다가
##민주
##고속
##마는
드랍
가까이
이후로는
##시와
##왕이
후에는
생물
했을
거주
08
아나
3개
##사건
클럽
##운다
자리에
유래
##어요
죽는
인사
연예
채로
해금
노래를
##렸을
올림픽
##니스
##비는
목숨을
돌격
심각한
프로토
방법이
##으려
신뢰
내에
##오를
하나인
쪽으로
방패
마주
##진은
말해
쪽이
##스팅
곳에서
2루
그녀는
가로
대로
##대와
단점
##하였으며
38
##별로
아시아
격투
즉시
말했다
서비스
소멸
한글
레전
##까지만
테러
##만원
##아이
자체를
오른쪽
입장에서는
추가되었다
##당하고
##ap
못하게
스킬이
##라운
3일
온라인
비슷하게
##저히
포인트
처치
이득
고유
그들의
##즈는
공화
만든다
사건을
카운터
여겨
되돌
해제
##권에
##브를
마녀
아침
붙여
##장인
그렇지
페르
행복
##선은
첫번째
제법
##널티
실행
##면을
노동
3px
##까지의
##원과
어디까지
클로
시내
위기에
PS
##AR
쓰이는
##자면
99
불편
##선수
##ul
출발
되찾
##실이
##시리즈
##나다
##카는
형성
##단으로
본인도
##형의
살고
통해서
##먹을
##LC
##류가
화려
알렉
등판
아직도
##무라
##버리
의식
마법사
왕국
됐다
오로
가득
하수
자신과
추락
NPC
이름의
물러
성능을
##병을
##르트
이들의
##시고
죽여
발음
때에는
이사
##드리
생각을
##거리는
비중이
암흑
사상
##실에
세트
얻는
유용
주도
부진
당시의
선수가
없애
노출
##화는
요즘
##드라
##가에
생겼다
##용을
55
##되자
##os
탄생
정체
제시
격파
크고
북미
2회
에어
2006년
속에
선호
사이가
고급
들은
보수
기회를
한데
##인에게
##ce
최상
##기술
##안타
팬들이
뮤직
몸에
그곳
들이
수리
##하였으나
둘러
연계
조금씩
겨울
##토리
먹을
관심을
홍보
구단
장점
##이긴
박근
인지
어지
##판은
##작을
##리트
그리스
갑옷
2015
있어야
가입
##가능
##지는데
옛날
생겼
##마저도
팬들은
적어도
##리다
##키와
이미지
클리
체력을
방향으로
감독이
48
메이저
##링을
무엇보다
지명
풀어
꺼내
아무것도
하거나
##르크
##계에서
##리스트
##ri
구출
전투를
##족의
문을
집어
거래
이래
193
익숙
플레이를
흔들
검색
경기가
눈이
효과는
부분을
두산
##기관
똑같이
반응을
것이었다
메탈
##요일
##der
똑같은
호평
기습
광주
홈페이지
02
제기
주목
##연이
##당하는
살려
대륙
통한
##파이어
된다는
제조
몸이
사진을
##라스
종합
맞이
이들
사정
##가락
드물
골드
던져
인구
일반적으로
##지않
하더라도
대체로
오후
##역에서
얼음
작전
투자
폭풍
vs
글을
공유
AP
방법을
되지만
판타
목적
싶어
어떻게든
##군과
마음에
막장
##르를
##인인
거리
뒤를
대폭
증명
이후에도
응원
작중에서
복잡
##든가
빠진
제로
여동생
##되었으나
위치를
정령
취소
##았으나
##장한
넘는
스프
##해보
평가가
보여주고
신의
##가와
만에
네이버
불가능하다
민간
수입
##로서의
##마리
##코는
영상을
##um
딜러
교환
##이야
캐릭터로
정도가
오오
감염
##프는
두려
기억을
파일럿
##광역
내는
전자
구현
##냐며
2배
##시절
형제
성향
##없다
동네
있었다고
##보가
무적
우승을
도중에
진정한
로드
##속도
##형으로
복수
어쩌
달아
성적
사람들의
##잖아
37
##중한
학살
세월
##조리
##운동
##전사
공산
곳이
말할
레인
동원
세계관
거라고
##다보니
폭주
황제
때가
저그
테크
그에게
스킨
지나치게
현재의
몰려
너무나
붙은
나름대로
이후의
나와서
낮아
자료
##민이
구해
넓은
이날
언니
150
차라리
함정
포르
지니고
갈아
그럼에도
김성
인상
##야를
##학을
등에서
##IC
##다니는
시키
압도적인
안드로
고전
이스
##가고
추적
무언
신청
##당히
곡을
해적
올리
설정이
걸린
##짜리
##세트
그래픽
전달
맡고
불명
잡는
않았지만
않아도
아쉽
##피아
##AN
어쨌든
빨간
03
줄어
많아서
이용하여
하필
울트라
##해졌
박근혜
당선
장애
오픈
그와
실시
끝나고
오리
초창
없었고
내구
목록
연상
##단은
##iz
##데다
##하는게
처럼
공주
없으니
##의가
연애
마법을
이것을
이슬
오해
##어와
단지
제3
거리가
오빠
##lay
##하기는
##주년
가문
공격에
동영
있기에
여유
무게
진지
어디까지나
체육
2005년
상향
우리가
도움
흘러
##병이
극단
스마트
않았던
07
넘겨
생각하고
괴롭
등장했다
##터는
튀어나
트레
##판에서
팀은
사항
##루스
탱커
##and
단일
베이스
대립
400
##류를
능력은
하니
실력을
조심
간혹
말은
전투에서
어깨
맡았다
시행
소리가
##들과는
가깝다
1인
##하면서도
##했는지
주변에
심한
스트라이
막을
타워
없는데
##격으로
없으면
성격이
##이트를
이뤄
바르
단순한
대부분이
해체
관계를
##실에서
##메이크
##으려고
대미지를
##드에서
##중인
안에서
##있고
최후의
행사
##업이
막기
해당하는
미사일
##ON
관계로
느낌이
##리나
보이지만
적극적으로
관계가
절망
##ter
아니냐는
권총
일도
유키
카르
##디아
##보스
공부
1로
최소한
아버지가
화장
##오프
귀여
잡을
다수
알겠지만
차별
포탑
중에서는
##스트가
시켜
##경이
##으론
이나
##랭크
육군
주지
조정
##마스
나루
근무
건강
변경되었다
##연을
계승
옮겨
해방
엑스
써서
되어서
곧바로
##사항
##선거
대장
끌고
지속적으로
##작이
작동
한동안
근처에
##화되어
명예
비해서
기록했다
신규
돌아온
42
리메이크
싸울
대상으로
##직을
##AT
##자들에게
유명하다
출현
분위기
신인
모으
쓰인다
##당을
대화를
나뉘
##파를
착각
아라
##영이
버리고
곳으로
은근히
스폰
목격
서서
자이
총을
##당해
##인트
달린
2004년
중인
언제나
##지컬
트위터
같지만
##PG
선생님
깊은
MS
계획을
쓰기
##표를
조각
##로로
##러운
모두가
##스턴
##모의
협박
##VP
II
KT
도달
##담을
하나는
##거운
충전
임명
최강의
##되었지만
그랬
자신도
##당한다
회전
운전
##ra
##드립
##만큼은
협력
목적으로
아오
트랙
더더
불꽃
분석
추격
가볍
자원
외에는
##환이
이거
전형
아머
연사
##율을
판정
쉽다
##했었다
명이
밖으로
끌려
##일까지
전까지
##면에
관객
성우는
##부와
무료
조절
통일
개의
생각보다
보상
##였다는
아니었다
맞다
대사를
마이크
의사
##스트라
자신들의
더빙
경계
Lv
했다는
##물의
마구
##책을
요새
까다
보일
팬들의
세력
##내기
알파
멀쩡
맞지
쫓아
##오고
이승
##사람
##편에서
##주지
헤드
더더욱
##PU
##ct
사이트
말이다
들을
빠르
한마
##마법
에스
몬스터를
##함에
SP
레벨이
창작
Ch
39
입학
죄다
##미와
중에는
고백
말하면
##설을
오랫
경기도
##교통
점차
리버
많은데
기능을
이르
한국어
##모리
##인에
##마을
강제로
합쳐
특별한
##체에
힘으로
##치며
참전
허나
3차
##급이
위험한
##줘야
그것이
헤어
가이
##11
##센터
시티
크레
변호
집단
했으며
드러나
##리아의
무대
##번에
마도
기술이
소화
철도
##기간
##당에
커맨
승강
오스
DLC
##되지만
06
메카
모바
유령
팬덤
##안이
##니의
존재하지
커플
노예
테란
외교
유저가
마이너
##하려면
스타일
##IN
있다가
달고
생각이
##함과
어지간
것이고
##자고
가드
자랑한다
왔다
실력이
NC
대략
이들을
##주인
##디로
무기로
기능이
특이한
경유
전직
보낸
고생
보인
사용해
방에
65
뉴욕
상황이다
않는다는
추진
불법
양산
##과도
들어간다
인생
##리도
##역에
##식은
##인지는
대규모
체포
##48
퀄리티
##기지
##급으로
47
##인들은
##소에
파이널
테마
##가며
##발이
스페셜
대충
대처
정확히는
##다이
##았다는
##AM
있었으며
기록을
없던
깨닫
보며
내놓
나타난
##고의
##코를
부상을
##색을
의혹
##름을
의뢰
보도
근육
2의
파란
##등이
전쟁을
맞은
작품의
펼쳐
##주차
##이라며
인간이
기반으로
무효
##색으로
버려
##재를
##조차도
##연의
죽인
##관은
2일
##동에
피아
인공
편의
정확한
한참
##호선
디버
세계의
##라기
한타
순수
적대
##하라고
그로
센터
##타입
갤럭
예능
외계
##op
기어
##뿐만
자동차
##데미
##실한
44
가능하며
##현이
##형은
##국을
어떠
파견
관심이
예외
##투를
##공의
이길
파이어
예측
05
어릴
정도다
분위기가
##디가
##ate
평이
##ation
별다른
전에는
##전차
MP
No
##편의
##되어서
파이터
게임에서
##OS
스파이
아사
아야
구속
사람들도
스페인
##노가
것만
제국의
분위기를
##ly
어둠의
##량으로
비슷하다
조용
테이
0으로
##심으로
아케
남겨
수치
반응이
공항
##부대
##작의
##언이
다루는
라이더
갈수록
피를
##인들의
싸움을
매일
모양이다
마술
##공이
잡혀
##의로
경향이
지금도
개통
##린이
아닌가
지하철
사용하고
단체
오랫동안
한다면
홀로
훌륭한
##버려
모른
구멍
작가가
페이스
##이게
다들
차단
##토는
##된다는
되었다고
밴드
주전
단어
것인지
행성
인근
장면을
들어갈
##기까지
글로
##ont
죽일
절대로
긍정
다를
득점
매니
##느라
공격하는
형태의
감안하면
잃은
흥행
##회는
크루
영원
국가대표
받아들이
##속성
BGM
성적을
8강
시기에
성인
보게
러브
이내
맞게
5일
아니라는
콘서
##종이
모조리
대상이
##당했다
##ound
변형
똑같
화이트
감옥
데다가
어마
있어도
사용하지
##되었을
가고
##이기에
나가는
사거리
평화
4강
이전의
밝혀졌다
버프를
##웨이
##동으로
내의
##소한
2014
##먼트
##관으로
가리
게이지
카드의
순위
이상으로
MA
AI
말로
자가
짓을
##사카
##나무
##oc
나눠
소닉
##연합
등은
##당할
나쁘지
##동의
선물
유행
봐야
3D
다리
##팀이
옷을
닥터
SBS
분야
##신으로
당해
##배를
성공했다
랭크
한화
잠수
##머리
가능성도
##홈런
폐지
43
##러의
2위
##이었다고
지금의
떨어진다
시각
전멸
결코
사람들에게
다룬
##법이
세계를
브라질
간의
수집
##코와
아우
기본적인
이어지는
##론의
수십
##것으로
정당
산업
##였기
점이다
크로스
요괴
강하다
##민의
##라에
저주
여왕
몰라도
##시안
잃고
생활을
심하게
위주로
10일
반격
##소의
##은행
##산이
죽음을
##하에
처벌
##으러
##츠의
플레
미나
제이
욕을
##어버린
프로젝트
공개된
##통을
30일
##로스
현지
마왕
우연히
치는
보여주며
여담이지만
학생들이
##씨가
입력
##바람
독자
극복
세워
##봐야
불가능한
일으키
수사
이리
##먹고
만나게
대학교
에서는
##급을
찾아가
##더라
수련
##고로
파트너
태어
있었기
##탄이
다섯
푸른
쓰레기
승부
마침내
외국인
##해준다
보장
아쉬운
SS
뜬금
동시
주기
만났
##되었다고
싶다
##하기가
찍어
In
##속도가
대항
좋게
4일
내세
들어온
뉴스
CD
지역의
##막을
아바
없었
##쟁이
무방
적절한
##때는
##버렸
감시
고향
감독의
수원
뒤에서
나아
자동으로
적응
2002년
3인
노트
귀찮
이용해서
정체를
아메
교수
마인
과거의
##파의
지어
##한이
##맨의
약간의
수송
##관에
64
정면
##세에
##크와
나오기
고양이
이성
프리미
감정
04
한국에서
모여
전성
##방에서
버렸다
##시장
되었는데
##졌지만
##림을
그렇지만
올린
15일
중학교
한계
도서
어른
이중
인터뷰에서
주인공의
강하게
합격
##ill
캐스팅
방법은
현상
##둥이
효과로
올리는
적혀
방어력
##맨이
있는지
##양이
말아
베르
아니라고
##권은
##것은
##미야
되었으며
전원
넣고
있었을
발매된
이외에도
##한을
on
##서로
##무기
3루
##타와
비싸
##금이
##심한
후쿠
##린의
##링이
##세는
의존
미츠
##영을
캐릭터는
##터리
120
##환을
##AL
어드
한명
블록
업무
##OR
선수들이
후속작
##실로
전력
기여
전형적인
태어난
음반
저런
그렇다
##노의
힘들어
##시키기
편성
##묘한
드는
네가
사이의
관심
대미지
전함
##마와
출장
버린다
높고
신고
시달
##역의
예고
장교
무시하고
km
셈이다
찾는
##라이언
퀘스트를
예비
##등의
SN
시장
융합
##받을
##독교
모르고
언어
이제는
##스도
초반에는
쿠로
눌러
be
다수의
회수
대개
##방으로
당하는
어두
##관계
깔끔
##특별
##아는
인형
##리언
죽고
무작
루트
마음이
카나
정류
부른
유닛을
##즈와
용의
##트남
식의
##츠가
41
##재가
##세로
안티
정신을
중화
자세히
좋을
가면라이더
국회의원
전면
일방
##곡을
##디언
휘두
##물에
모바일
별개로
서양
51
이슬람
전화
192
7일
신성
의미로
20일
경비
외부
콜라
언급한
##차는
한정으로
칭찬
3대
##ius
##졌을
##소에서
2003년
소총
충격을
보지
도발
##론은
2000년대
##주자
내보
CC
불을
독특
마리오
구사
수용
##주기
사라진
##art
일으킨
자매
과거에
간신
대사가
2부
맞으면
믿고
##평가
##했다면
결과적으로
돈이
죽어
경우에
이끌고
통신
시절의
텔레
좋고
자리에서
길이
접촉
##파가
녹음
가격이
입을
난다
##검을
##식에
신이
해병
지역에
##ast
제주
##무원
이루어진
일본에서
작가의
##자도
신기
극장판
46
4년
스카이
게임에
상품
##효과
##팀의
재현
채워
과연
잡은
스튜
AK
자체의
##팅을
어려워
명령을
아티
경기는
##구와
28일
표준
25일
##리지만
작용
학원
잡기
##yle
홍콩
##망을
스마트폰
활성
민족
##스톤
심리
##졌다고
##에겐
##전투
남아있
전후
##커가
##포가
주먹
빠져나
5년
경영
##해지고
목소리가
기초
원본
정지
단점이
다이아
나이가
##였을
이외의
비싼
등과
##렸던
자폭
대표적으로
수학
##로와
##ie
사건의
물론이고
등장하지
##츠를
이지
다음날
덧붙
52
아름다운
##주며
이미지가
예술
레오
##어마
##속이
적당히
##석은
날아가
개입
##과학
##나서
전부터
화력
##기나
유저들은
##히지
패턴이
입단
##야구
##ab
FA
##리는데
물을
##로봇
##받았다
훗날
않았을
##시스
창조
##공항
##다의
코드
##정부
##닌다
말하자면
##스포
##니어
죽는다
웹툰
##루는
배트
얼굴이
고용
화를
별명
열쇠
말자
##설이
##률을
덤으로
계약을
무릎
##피를
업그레이
안된다
터뜨
##받는다
수준이다
것일
자이언
박정
##광역시
병력을
##령을
공격력을
##메이
##욕을
고작
크리티
사용하여
눈물을
보다는
손으로
밸런스
판타지
##유를
아리
##베르
어떠한
소프트
블로그
거야
메뉴
바보
저녁
##졌는데
집에서
##들만
##버릴
##브리
통제
##전과
그들을
합성
##톨릭
멈추
##하가
그건
메타
4개
##토와
있었다는
##지지만
##ers
##철도
하나도
3회
단계
포스트
히로인
일찍
대만
합체
지내
아버지의
반발
밝혀진
키리
부품
이재
된다고
할아버
블러
들어갔
하락
챙겨
위치에
죽이고
16강
자식
공격할
##다나
완벽한
##집을
걸고
플레이어의
일시
한쪽
##재로
죽음의
##스트의
피격
부각
##ell
발언을
마크
27일
벌어진
정착
지원을
안내
수익
##니와
세상을
파라
일상
널리
유전
강철
판정이
확인할
어째서
이상을
인수
14일
어마어마
##대회
신경쓰
나오며
태그
결과를
취급을
기독교
나중
이번에는
문재
방법으로
You
##다시
##약한
내지
SKT
해주는
8일
##증이
아빠
ST
보유하고
##이도
멤버들이
무덤
임시
부수
##화와
소형
팬들
##하더라도
효율이
레전드
##BO
갔다
저장
편이라
역을
##버를
하얀
중계
느낄
##슈타
틀어
##군으로
네임
머리가
##비로
올라온
생각해보면
##졌으며
49
간신히
사장
주었다
##하라는
##분의
없다면
당연한
나오면
##질로
장식
##다란
##커를
장수
##계열
떨어뜨
전체를
건축
가볍게
Re
##석에
성공한다
맞서
강요
동방
크리티컬
일본어
좌우
인물이
가짜
키워
##iki
##치면
당신
##약이
MC
##리에게
말하며
3학년
싸워
임무를
날개
그들이
##화한
병력
나무위
청년
가야
24일
양쪽
##종을
향상
자리잡
범위가
그러다가
걸쳐
찍은
느린
낫다
차원
평타
주연
비디오
##적의
부서
is
26일
총알
##교를
2기
AR
##일드
1학년
활발
##건을
다음에
아가
나면
17일
스톰
##니를
##네가
##들보다
##AS
##령이
6일
의문
아마도
아이를
카드는
본선
##리얼
##등학생
간부
보라
##조는
국방
##사키
이것도
##AC
받으며
둘은
군단
13일
##ding
PD
주제에
##ia
무기가
부모님
브랜드
거리를
이론
##이면서
저질
빛을
도주
가끔씩
21일
##ED
##호와
22일
싫어하는
무척
지나가
일이다
##되었다는
않도록
##렬한
점수를
11일
조성
앉아
##듯한
통상
프라
찾기
보여줬다
이용하는
거듭
##50
새벽
이전에는
성능은
전의
빨라
환승
##았으며
미야
남긴
침공
둘째
위하여
600
Th
12일
곳은
직전에
검찰
유희
191
##지기도
완벽하게
56
##하자마자
구체
##ore
용도로
##르지
##모델
당하고
미스
##자리
23일
소식을
2학년
##ue
##저가
29일
##는게
##시에는
18일
느낀
전진
##션을
##if
출판
##FA
##안에
##메가
몰락
##리우
시스템을
유저들의
숨겨진
방출
되기도
##능력을
넥센
중국의
##주었다
##함으로써
9일
MVP
역사상
규정
##박을
검을
구하기
한번에
##까진
3연
##에다
##ys
위장
##소로
하야
마시
소수
트로
상술
##실점
Sp
의무
후지
직원
하나씩
사용이
마츠
홈런을
##isp
스턴
##영의
##스탄
##oo
저렴
##있어
말하고
망가
점수
실망
군대
##석의
54
##슬러
##VE
##해서는
수준이
바꾼
##ind
놀라
스승
##위해
19일
죽이는
##커의
물고
1대
규칙
천재
능력치
방사
외의
##있게
##택을
##시하는
##정도로
##이든
##러니
방송에서
우리는
마이클
집을
이식
버린
##하겠다고
타락
타케
##인간
코어
가톨릭
상상
검사
유로
할머니
##란다
##우와
시너
거기서
연락
Sh
##연구
당시에
그들은
테스트
##저럭
그럭
프린
곤란
들어가면
##친구
##비와
것이며
##판으로
가문의
디아
2층
난입
##kg
##미니
바깥
보너스
후반에
##능이
정도였다
강남
이미지를
제갈
들면
이겨
그럭저럭
WW
16일
가만
##겠다며
Bl
불린다
이끄
수류
연관
정복
태어나
사운드
출마
##인데다
작품이
##ort
금방
심지어는
2001년
유닛이
전반적으로
##으로서의
공급
늘어난
SM
정치적
메시
가속
##명에
적어
편입
내리
쉽지
##실의
정찰
캠페
##진으로
의료
##했습니다
예로
웨이
보관
폭격
초기에는
단단
게임은
자극
휘말
또다시
##프와
작품을
##하고자
부딪
그러자
##디를
모를
나타난다
클래스
지형
##내지
베트남
리듬
wiki
##번이
행위
##FC
제어
점도
##졌던
수영
스티
김영
회의
넣는
##ant
잡지
아니라면
##메달
랭킹
갤럭시
알아서
##문화
이펙
만들기
들여
##해가
오직
KO
AT
##양을
감독은
800
멘탈
면에서
설정을
##파이
애플
후계
##으로만
증가한다
##ard
승격
인하여
##중이다
대원
##유닛
2번째
걸맞
후배
##파로
노란
##로워
우리나라
초중
##현의
만날
움직이는
전체적인
##피스
물려
아크
##우며
격추
사랑을
장악
1기
플레이어를
입수
시절에
들려
습득
발달
##국에
##도에서
##던지
##이었기
엄마
##보기
묘사가
감정을
주변의
언급이
##통이
색깔
주인공은
곳곳
유사한
열어
살펴
##단과
비판을
먹은
급격
호텔
##들인
곡이
##백을
둘의
존재를
진짜로
개막
##색의
기믹
확실한
캐나다
명확
##거를
토모
무렵
잔뜩
떠오
내고
공성
현재까지
높이
이끄는
갈라
##대장
##린을
적합
##지마
와이
##희가
기분
##직한
##되게
접속
주말
커녕
##저의
잘못된
특성을
##해보면
왕의
##경에
농담
열차
경우엔
나의
감사
##버가
아일
의견도
수업
##들과의
로그
##후반
처음에
대미지가
잠재
에너지를
유독
이영
김태
늦게
헌터
##이었으며
손가락
최신
원인
4번
커리어
##다를
공식적으로
##라이트
##왔던
시작으로
부상으로
한국에서는
휴대
부분에
아파
##시코
##경우
핸드
##페이
아니며
계기로
##것이다
##어리
##망이
이어서
##류의
많지만
##졌다는
면이
##가서
##된다고
의원
늑대
간접
생긴다
타이거
저작
30분
2013
##끄러
조건을
##all
못했고
넣은
삼국지
2로
자연스럽게
오마
결성
꿈을
의견을
죽기
무시무
장면은
공군
카미
루시
되었을
더군
경기에
##레나
##명한
##보로
총기
드라
비교하면
울산
환상
출연한
2인
##인들을
##시험
##되던
생기는
중독
후술
존재가
스태
개방
장비를
것인데
##서에
아들이
메르
얻고
평을
kt
신설
혹시
달러
무관
상관없이
##해질
집착
##오카
##패로
시간에
뛰어넘
##이너
브루
KIA
##세한
##리거나
he
청소년
과정을
선전
신분
내장
얻게
##생의
유니폼
빛의
레이더
나나
책을
헤비
##두는
##하를
스코어
타겟
인물로
한자
58
캐논
정황
기울
59
사용되는
지뢰
##법은
확실하게
기숙
##생이
기용
지역을
출신의
느낌을
찾을
마다
66
사용하기
##거리를
##겠지
US
##ith
피할
명을
대한민국의
불펜
흡혈
코믹스
##나가는
장르
53
등장하며
##아와
자는
네오
##장갑
커다란
##선과
악역
죽지
않는다고
##하시
##하이
사람에게
##사령
##쪽의
베어
그라
##데다가
기병
##랑이
대단한
상급
style
무기는
##발로
##브가
물건을
나카
수수
더군다나
##야만
경상
전투에
그러다
##인데도
##물은
여신
속도를
스킬은
##IT
##렸다고
##isplay
CPU
탈퇴
처형
곳을
댄스
##당은
가지게
GT
레어
실버
네덜
##ld
목을
동굴
일행이
앞두고
숨어
데다
보안
집으로
##바의
##사용
AC
브리
두들
스즈
##비트
캡틴
식민
##지인
답이
9회
for
##레가
원칙
빼고
편이지만
어딘
웬만한
##노우
피해가
구원
무서운
친구가
##곡으로
모래
몬스터가
##터로
##OL
그러니까
##정보
##네의
후에도
심심
##각이
##지원
이상이
고교
입장에서
De
##줬다
##편이
고위
분명히
비용
화려한
준수한
페이지
전쟁이
##포로
차를
##ge
리가
##진과
기사가
시스템이
그렇고
갖춘
##테인
몰랐
우수한
연속으로
구성되어
##line
돌입
부를
남녀
프리큐
끔찍
##ive
트럼
블레이
왠지
57
##바가
애매한
##오와
볼넷
의지
기자
육성
##했기에
공격으로
있듯이
경고
재밌
사라진다
약점
지역에서
베스트
당했다
##ll
끝날
##소리
##노를
매년
스킬로
빼면
게이트
장전
간간
부러
이른
##ss
전투가
##번을
세계에서
싶다면
##더러
공격한다
현역
가벼
매직
시절에는
교황
참석
##나고
##있는데
미군
칼을
인간을
IS
##스카
##트릭
사망한
스피드
실수로
이유를
인증
##니는
요소가
너프
때에
유대
가라
건드
##탄의
성공한
상처를
버그가
##우기
시즌을
근본
플레이가
안드로이드
상대에게
전작의
##gr
건지
마리아
많지
##제한
##소는
클레
브랜
영구
먹어
은행
문서를
그러한
다음으로
트윈
##스키
모리
본다
희귀
승객
##남도
보완
비례
이벤트를
##달라는
##ize
DJ
고수
상업
모습도
유치
생략
##습을
소위
##정과
##per
철저
##어버리는
들어올
추구
오스트
올라오
우수
도끼
##치면서
듣는
##바닥
가사
이벤트가
아즈
노리고
쪽은
해상
##속으로
팬들에게
타는
##라에게
답변
오지
##머가
##유가
원딜
공개되었다
부분에서
위력을
##편에
언젠
업데이트로
거다
##se
플랫
특집
180
추종
상기
이시
display
가려
챌린
원인이
스타크래프트
기뻐
2012
가스
리얼
##웠던
디지털
골든
##조로
사건으로
누르면
맛이
장면에서
##창을
시절부터
##야는
##비에
이끌어
길드
어린이
반해
1층
시그
된다면
반사
밝히
소재로
##자동
공격은
##ain
##EN
높게
##하진
목표로
스트리
스토리가
카타
나간
or
전공
슈팅
괜히
질문
터치
공작
기록하며
와중
낮다
제임
사후
스플
진보
##구려
##고에
5초
하나만
보물
이명
##기업
합니다
미카
제외하고는
전까지는
2대
타격을
안나
히데
##아파트
영상이
압도적으로
##곡이
사라졌다
CJ
숙련
##주민
##마스터
엘프
##ist
일제
따온
제작한
얻기
슬롯
76
##족이
있겠지만
95
##자나
성립
좁은
노리는
##인한
영문
나를
이집
매달
준우
##르며
스웨
##EC
발생한다
올릴
지불
왕이
걸리는
##나간
##무가
머리에
카메라
독특한
노려
##든다
##레를
나은
1999년
한두
##번의
타자
바닥에
##받지
##시설
오랜만에
팀에
##웨어
다리를
돌아다니
구글
데몬
상대방
미안
간단히
넣을
뒤집어
코미
카드로
버리는
##루와
##데스
귀여운
연방
##그리
묻자
공룡
##역은
3위
페널티
카오스
의미를
자랑하는
드리
장점이
결과가
공허
##는지는
전시
##80
##나라의
아끼
서부
박사
무사히
채택
재판
속도로
피가
##됩니다
유력
일으켜
몬스터의
필살기
문명
화가
위치해
머물
가르쳐
뜻을
##중학교
기관총
같아
시즈
냄새
생각할
##위원회
스토리를
가치가
##미네
이즈
##났고
없으므로
있음을
##했듯이
1998년
##돌이
매번
최근에는
쿨타
개량
이은
##복이
갑작
트랜
포스
치유
출입
비공
##디의
##ub
작년
##비스
아이러니
에드
했었다
발라
중립
##프리
계급
사전
##님의
##국은
시작하는
드레
##브의
##경의
이치
억지로
트롤
사이버
전체가
하차
주인공을
##자키
헤이
비상
어머니가
아파트
곡이다
떠난
##능을
85
태도를
##MA
끊어
SC
1루
##와도
##방향
##먹은
김정
##능력이
이글
##ms
적다
정식으로
나선
신앙
비트
##주시
스틸
플로
정도이다
무력화
경험이
적지
즉사
##구에서
bor
엑스트라
호위
스프링
##결을
재개
##주에
인물이다
시체
##더의
은하
그것은
이민
나아가
일행을
매력
##영화
규모
증언
환영
##안의
캔슬
귀환
##스틱
설정상
문재인
##걸로
##보드
런던
써야
없으나
장군
##교의
카라
위기를
영화를
기록한
받아들여
##그라
##는데도
##사업
##치도
고문
발생한
안좋
##차례
pad
##워드
해준다
##서야
대단히
정확하게
사살
딜을
수백
조지
한국인
##진에
사태가
골을
형식
##건이
바퀴
이루어져
크리스탈
특히나
##림이
##항공
##운을
트레이드
##위권
##음악
하향
##훈련
##관에서
많기
팀원
##운이
차가
##되거나
##바를
잉글
전해
불렀
1명
유리한
##더가
##포의
##21
일로
토론
##상황
나왔던
아저
아쿠
플레이오프
어택
시야
##막이
발을
이긴
김종
padding
대통령이
이혼
잠입
기술로
##해주고
##단에서
밝힌
##등장
크기
##모드
##기기
불이
빌려
##크라
대거
##누리
들었다
에게
구할
메리
진실을
##술사
트라이
보자
데에
##주와
술을
아래에
##게이
rad
길어
진심으로
음악을
쿨타임
선두
수술
##줘서
요구하는
차기
위력이
나오기도
자신들이
클래식
두려워
방지
##합이
##린은
후반부
언급된
발생하는
생일
예정이다
##행이
사례가
함선
##감한
초반부터
중요하다
능력으로
농구
##그가
OST
FI
일어나는
결말
칼날
##라노
어이
##사랑
배우는
특기
임팩
주장하는
이하의
방어력이
##함으로
##있으며
1997년
보면서
좋아서
수를
주인공인
도저히
기회가
치명적인
디지몬
파는
거짓말
처음엔
##원도
비웃
##관리
border
토벌
대다수
후보로
아이언
밑에
서번
니코
GS
넘어서
size
##경기에서
체인
오전
Be
적들을
##주일
대대
나타나는
체크
오래된
지팡
둘을
비주
엑시
자전
##함은
나오면서
##면에서
##이거나
사마
그러던
이득을
침략
190
초창기
스튜디오
신문
측에서
지식
들어오는
노부
최종보스
가만히
추억
서울특별
이슈
##제와
##보이는
##혀서
깨달
지나지
화력이
그림자
느끼고
오늘날
멜로
쓸데
##상과
##BA
알리
얘기를
여지가
등장하는데
세이버
탄약
기록이
##슨이
font
남북
상대는
##살을
##르와
사냥꾼
62
보이는데
inline
실종
않았다고
오버워
2연
##유럽
유효
아래의
주사
버튼을
사양
HD
##터테인
얻어맞
군인
##속에
멋진
새끼
가동
김민
##임은
JR
회원
곡의
##드러
radius
사라져
입장을
올렸다
받아서
보내는
법률
처참
폐쇄
##발의
언데
서서히
##하길
지시
소지
쏘는
패턴을
이정
최다
##러는
목소리
대부분은
포함되어
마약
그래서인지
현상이
##지나
##레이터
##ep
##집이
캐리
침입
가지는
갤러리
##EM
##워크
관련이
##더를
기점으로
##이었다는
##마에
느려
대표팀
채팅
가시
2px
불만을
메달
1만
##반이
뮤직비
5개
가을
놓은
한방에
##갔고
단편
새롭게
선수를
막는
##OP
넘게
상호
기존에
더이상
31일
당할
토끼
팔을
##인듯
사귀
별도의
말라고
키가
프라이
수치가
##족을
##율은
되므로
##등급
하트
77
과도
올라가는
수월
##로만
듯이
출생
동의
하나이다
##운의
취향
한국에
날카
같다고
위대한
되었지만
##라엘
결과는
##리케
정통
대인
좋다고
##지방
##리던
돌아가는
##산의
##av
##타이어
순서
배를
바뀐다
스팀
##공격을
시킨
갖추고
##하고는
##에서부터
시원
곡은
차이는
##늦게
종류의
##째로
결정적인
사거리가
##고한
어두운
누적
시리즈를
제한이
시리즈에
언더
음식을
중의
##왕을
형식으로
목소리를
직접적으로
끊임
미스터
##면이
동성
전설의
능력치가
스톤
##한의
호평을
##저를
스킬의
##는가
SD
5회
##리기도
이며
세뇌
영국의
영향으로
노선이
교전
뜬금없이
저지른
닌자
해킹
맞을
카카
##IS
##one
##법에
90년대
##어에
포기하고
2세
닮은
##로써
일치
동인
관중
읽어
또다른
사고를
back
##ip
대치
들어가서
동일하다
##동은
집어넣
보냈
##노는
8회
사용된다
88
화력을
##매를
사막
##시키면
당일
무의
할수
챕터
##회사
사토
바이오
노멀
위원
왜냐
받기
가능성은
날리는
막상
무지
특수한
끝난다
##민은
인지도
##VD
##봤자
초등학교
호흡
터져
##감에
##되므로
풀려
예전에
질문에
출시된
거울
곳이다
##티아
일에
자체도
아이콘
사랑하는
마비
##준이
제자
최하
Su
운영하는
전문가
가해
배경으로
##그를
일명
사우
폭력
##ect
못하면
1군
##품이
기가
다스
어필
##열을
조건이
의미한다
만들어서
콜라보
##스러워
초보
친한
트럭
##침을
스텔
경우에도
라이플
아버지를
윌리
레알
4차
##ES
##브라
수록곡
불렀다
나갈
##30
연기를
역시나
##타이
부르며
플레이어는
발동할
##고도
김대
아이템이
it
##체인
매치
간단한
언덕
1의
##있었다
##국가
치명타
##하였는데
마냥
과거에는
##작으로
사실이다
조조
##국에서
다녔
도둑
줄여
모모
작업을
성우가
남아있는
삶을
패션
잘라
##베이
않았다는
##렸지만
##피가
방식을
##미로
##드레
##스와의
클랜
지키기
치면
통틀
동부
##신과
이용할
##목이
소식이
시청자
합의
터키
속으로
당신이
72
##동과
죽게
반박
보충
##타수
지휘관
오류
조금만
남기고
태평
필리
##음에
98
##온의
1장
VS
##버스터
삽입
##리아가
금속
##이치
편에
3명
TH
나무위키
3번째
거는
오디션
자격
##름이
제가
달라고
##경찰
##ID
건물을
크기가
못해서
초록
##스나
Lo
He
위기
어빌
##렸는데
이니
카트
##었는지
우월
##디는
무인
아테
여기는
원작의
An
##훈이
올해
단축
##사도
##RA
성격을
땅에
맡아
바가
##영은
##열이
##판과
활성화
학교에
실수
민주당
요정
RPG
김동
3의
따지면
슬라이
장거리
좋지만
전무
되어버렸다
##중에서
##계는
혐오
##건지
김재
##비한
코우
소드
##손으로
상태였다
어렸을
##병의
##연한
##ere
나왔는데
새누리
쓸만한
WWE
##더스
있겠다
##서도
두들겨
해골
1996년
세운
##블로
##합을
##되어있다
순간이
옹호
대하여
##숙한
##종은
뜻하는
재활
전화를
몽골
##자라는
때문이라고
공기
기회
당신의
얻었다
돌아와
플랫폼
보통은
##인들
지키는
사건에
너희
##있을
##실은
유격
말투
만일
##사에게
오로지
되었다는
마그
뒤늦게
이상은
아니기
인원
쓰러트
##본을
유발
##ry
##퍼가
비정
공공
##기게
특별히
정부의
4회
시작된
브로
##이한
미라
다이아몬
뜻이다
조롱
데드
주둔
##너가
스테이
바꿀
무시무시한
며칠
##지거나
##부터가
취임
지경
페이즈
팬텀
##병으로
##중간
동기
쓰여
근거리
악당
##왔고
연금
##환의
고스트
감지
##싸움
##스런
머리카
##익을
일격
##렸다는
예선
##공화
##온이
운이
스트레
드림
버전이
구슬
##사우
챔피언스
호칭
연료
각자
1부
##국으로
난이도는
##ity
군주
사이드
포르투
손오
이자
무산
세대
포격
##그래
2명
땅을
포위
##츠는
재정
##마냥
넘어가는
중후반
##미터
후퇴
##문은
호불
##켰다
M1
본작
책임을
##여객
국립
변화가
티켓
##감독
##럽게
##고속도로
출연했다
##도르
쉬워
명백
것보다
버스터
트리플
대상을
1995년
실은
로스
뮤직비디오
##현은
혁명
유의
유인
가리지
공지
##드래
##CG
##배우
연극
##사관
눈물
정수
보석
나지
제정
여기저
국가의
##하곤
방치
아래로
남자가
패스
완전한
유지하고
궁금
##란의
올랐다
배포
##목으로
코치
한방
완결
맡게
훈련을
너무나도
SNS
부스터
##하지도
하려고
마법소녀
클릭
업로드
##역과
##본다
일어났
차이를
상자
털어
막고
속한다
삼아
확대
강의
##한국
않다는
예언
미국에서
동아리
번에
여전
출처
회상
##실점으로
일원
250
LC
##들처럼
##저런
##타자
심장
사라지고
선택할
복수를
##북도
##편을
여론
충성
나머지는
상태를
구경
유통
은신
엄밀
해피
4대
교회
동양
##산업
주의해야
이젠
막내
정차
한마디로
##이랑
1턴
데미지는
Ne
천사
##나로
신입
기사를
호주
영화의
조용히
구간이
볼수
선수는
대회에서
정상적인
이스라엘
되살
사용했다
##시켜서
용서
트라우
##률은
노가
추정되는
허락
##코어
늘려
스미
##했으니
뜯어
##차에
도움으로
##지니
갈등
##았기
진압
왕자
각각의
금액
막강
##가면
##ong
양의
여학생
여기서는
모습에
간간히
군대를
##ale
##성능
되도록
함부로
자치
자유롭게
써먹
시작했고
철거
사용하며
##타점
시리즈에서
집행
##사한
퍼포
##츠키
사형
일방적으로
생길
1분
##달아
미디어
중첩
##절한
말로는
초중반
거라
팔아
부정적인
이런저런
끝으로
글로벌
##히게
##되었기
작전을
엘리트
선제
지녔
다녀
당사
신화
re
##우면
시에
##내면서
전신
이유도
##OW
96
걸린다
##하겠다는
여럿
##례를
##후의
##차별
유망
방식이
##캐릭터
##신교
손님
지나면
나오게
나도
정부가
##공간
##엔딩
공연을
모티브로
일일
등장할
제출
가기
아기
싶으면
##등한
##권에서는
세력이
안타를
별명이
요약
아틀
CG
액티브
##희의
단행
계기가
##시키며
확장팩
##후에
스페이스
입장에선
그랜드
뱀파이어
치열
##길을
정보가
상대방의
##인데다가
상대할
많으며
##슨의
##란이
##슬링
##데이
나이에
##초간
##이트가
이야기는
기대를
위반
끌어올
그림을
시간은
바에
##ne
남부
##맨을
아군의
쌓아
아이가
문학
아버지는
뚫고
어빌리티
현장
##버트
##렇게
위치가
##ire
영업
라그
무리가
블라
##보이
##로에
개정
그녀에게
번도
레이드
악의
##OT
자라
소문이
쪽에
크리스마스
##ust
깜짝
##호환
대선
박스
폭탄을
내야
##데레
준비를
##리한
먹으면
싶다고
나오지만
당한다
20년
마력
##아리
프로듀서
무지막
강등
##란을
##조에
오타
화제가
기지
지칭
아지
편이고
기아
배려
##전대
특징이다
악몽
61
안정적인
극히
청와
##션이
##우지
문자
식물
조별
독일의
컬러
##베이터
상황은
##민주당
경악
에그
시키는
아닌데
주의할
전세계
##관광
어쩌면
블러드
성향이
##티를
중형
벽을
포항
영토
202
에반
딜링
침묵
성적이
콜로
대신에
아저씨
##함의
전투기
##봐도
대리
보이기도
정발
되어있다
네트
기원
기재
와일드
존경
신경을
20대
1시간
개시
페이스북
녹색
담긴
##티나
눈치채
무지막지
빠르고
2군
누군가
뒤에는
##즈마
##해져서
듣는다
진행하는
세븐
교과
병원
증오
##다며
노르
##백이
거기다가
##민을
만만
##ome
DVD
복잡한
거친
요원
전원이
화학
##들이나
맞는다
알렉산
##차의
그러면
리타이어
카더라
KBO
잇는
퍼포먼
곡으로
##섰다
##ground
##란히
세계에
거지
##점의
있기도
##추어
아이스
하이퍼
세종
패널티
아니라서
##호로
깔아
##겠습니다
올스타
개혁
저택
주장을
길게
700
##2의
불사
이오
이걸로
##버전
1라운드
코멘
직접적인
리뷰
전락
충실
서로의
작품은
적중
튕겨
##브로
이주
싸움이
수출
##드컵
프레임
올랐
끔살
정체는
대지
역사를
1세
동작
##필드
짜증
지는
##들로부터
배정
##age
10분
배달
얻는다
레이스
남을
거미
비하
쓸만
##있지
가능하지만
##번은
관람
그날
나중에는
평생
생각한
참여한
만남
##표가
아케이드
마법의
느끼는
##ang
##석에서
##건의
##단지
실질적인
아군이
돌연
통산
인터뷰를
복구
어지간한
차고
가까워
들어갔다
항복
의해서
전방
인디
대조
드롭
탱크
도박
아랍
1사
파생
모니
97
##외의
만나는
##리아를
##군에게
수능
아나운
##적으로도
귀엽
ld
부임
##관과
##사나
정도를
설령
전역
대우
낸다
딜레이
거둔
번개
제독
거론
건조
찍는
어디서
알바
##히트
##배가
전력을
##즈에
항의
필요는
골키
빌드
##체와
차지했다
사고가
##경은
구성된
토너
올리고
브레이크
후손
여행을
쿨타임이
##스레
##스트는
못했던
나치
약탈
스웨덴
##msys
쌍둥이
ldmsys
온다
쿠키
##만으로도
오락
파멸
고구려
쓰게
오염
제2차
연습생
옆에서
##MP
히카
아니더라도
1990년대
##해준
1장을
마케
설명을
##책으로
1편
국민의
##블린
스크린
##포인
##프에
다닌다
7회
부가
개설
인구가
커서
흑역
고기
##보의
##미에
결합
명칭은
성을
진학
##마루
블레이드
Ar
있거나
전철
만들어낸
세력을
허무
상황이었다
난이도를
1994년
입는
74
##상한
영원히
열리는
##마이
##우리
대량
##가게
선수들의
지은
실질적으로
##소총
##Hz
수면
엄격
##들에겐
미묘
가능하고
디자인이
시리즈가
일부를
모드를
교도
닌텐
##가면서
발매되었다
솔직
체감
##가시
어렵지
지목
사도
클라
있기는
윌리엄
안으로
서로를
받으면
재회
##벽을
Se
회장
탄창
캐릭터들이
미즈
##VA
좌절
들어와
손꼽
임신
##이었을
부인
던지는
싶을
##사이트
프로필
잉여
형태를
미술
취약
벽에
##iv
결정적으로
긴급
##플렉
슈퍼로봇
상태에
##ood
##구역
찍고
야생
후반부에
가치
한창
##권으로
##으니까
##로서는
4인
멕시코
블래
전체의
상의
왜곡
휘둘
벗어
죽었다
싱크로
마키
##질의
카구
##볼을
앞의
2019
지워
##령의
##속을
게이머
서포터
이닝
쫓겨
출격
##두면
1990년
투척
##바라
노선을
지역은
브레
표정을
평가는
개발한
둘다
가격은
드럼
편이며
여타
제도
전날
느꼈
발렌
보유한
마코
##ff
결심
귀신
폭파
김현
질투
샌드
##있지만
편에서
미래를
##문으로
무승
오사카
##소리를
4위
가벼운
##림의
베네
백성
아시안
무기의
##ure
증폭
결론
유출
사용시
본격적인
background
사야
관여
이종
##무장
6회
##사이드
주면
Pro
간주
싸움에서
커스
사제
요코
이수
스파이더
우위를
##놓는
미네
##구리
항목을
시간의
뮤지컬
부작
피닉
넘치는
프리큐어
##히면
가능성을
서울특별시
보존
##감과
품고
나폴
후의
##주면서
정신이
생각한다
음원
사카
기억이
##들끼리
##량과
틈을
##클럽
##용의
자국
##쉬를
식당
아인
차지하는
짐작
미루
학생회
##으면서도
##해줄
##록을
익스
##내에
자막
##법으로
한반
형사
라운드
발굴
모양의
관찰
##어지는
##ath
깎아
정화
##어버린다
##느니
패키
##상으로는
101
권력
할때
일어날
반응은
내린
수록된
##기며
##킹을
어그로를
학교에서
##몬의
##정하고
위주의
사이에서는
체험
길고
움직임을
##OD
사이코
##코스트
사망한다
프로그램을
##리스의
##ps
패널
정비
오브젝
##qu
봤을
아르헨
개별
투명
주간
것이기
시계
AM
Fe
쳐들어
성남
##태를
적시
향한
##PM
독재
약점을
사진이
전승
##미나
콘서트
것과는
호환
세상에
가질
##으려는
의식을
않는다면
##씨는
보내고
빅토
싸우게
글이
소속의
호소
이어진
해안
경험치
세상
시즌에
인피
##였기에
선택한
부착
주포
##박스
올라간다
상실
프리미엄
니시
도착한
맞춘
어마어마한
콘솔
##씨를
지키고
##쉽게
범용
정예
##OM
연타
권장
비극
살아남은
상식
경직
미드필
차량이
##쪽에서
##능한
##들에게도
끝나는
##변이
##네는
##ave
##텐데
시드
##부장
행위를
양성
끊임없이
##조직
쓰인
담당하는
특이하게도
호불호가
편지를
탐험
막대한
##일과
##시간에
영광
편하다
아메리카
##감은
##미에게
##OC
##pe
커피
않으므로
계열의
도망치
화물
##내어
주차
였다
사회적
##우스의
스나이
설명이
코난
밀리는
##다리
방향을
##권과
모자라
결투
있었기에
주장이
이로써
준우승
끝나면
엔진을
##퍼를
##UN
레벨을
배출
별도로
잡아먹
##졌으나
##ime
인지도가
끼고
중복
##인이다
비유
계획이
감정이
위엄
찾아온
조우
사쿠라
이전부터
나츠
대해서도
실시간
사용된
피해자
포르투갈
재장
주역
##단체
유닛의
신호
제작진
남는
##하르
가졌다
3점
##조사
올라왔다
일행은
##준의
무섭
##나이트
숫자
##맨은
##네요
자꾸
타쿠
프레이
오카
상반
맞붙
투구
##내서
##파는
많을
찾아볼
##교가
공격해
썼다
종이
##공학
덱에서
상태의
시대의
어리
##화에선
##팀을
정체가
##있다는
닉네
관할
아트
폐기
미치
인격
겹쳐
튼튼
##라딘
안타까
고객
##저리
##공으로
동일하게
영혼을
##유키
남겼다
플레이어에게
가량
##왕은
하에
##으라고
##12
인종
시작할
##대원
부드
힐러
##리라
##했듯
아들을
배가
심판
혼돈
국정
모르게
동영상
키스
##버리면
스펠
2에서
당신은
김경
그레
사자
차지하고
##ock
이웃
어색
##있어서
살아있는
올드
물에
수요가
EP
충분한
긴장
여자가
즐기는
##사들이
대접
시체를
그랑
나라의
특성이
폴란드
퇴장
중세
2편
간에
##ess
호의
최대의
엑시즈
적고
축하
오라
##나에게
끝났
최근에
불행
2010
신도
##기보다는
선사
외전
캐스터
어울리는
엄연히
파고
##크스
순수한
부르고
인데
##십시오
퍼져
같은데
##개발
인식이
##시간을
##려야
적으로
개를
불량
##레의
하나다
손쉽게
않았으나
속하는
한번도
일본에서는
##퍼스
with
개체
##히로
##통신
바꾸는
받았고
2라운드
달리는
##평을
감싸
위력
##TS
상태이다
중순
호감
오죽
##인도
##산으로
경우를
편인데
포인트를
가난
##거라
해명
##어버리고
편으로
더해
마감
세이브
제임스
##당하게
카를
청소
##티드
그외
부분이다
##박이
실수를
데이터를
사로
무난하게
선거에서
누구도
SR
유용한
라인업
나빠
수류탄
세팅
캐릭
레지
모은
없다며
##반의
물이
함대
선출
##집에
읽는
일시적으로
드러난다
스캔
##정에서
세번째
시대에
이번엔
이번에도
일본에
기종
AS
가죽
드문
날이
손이
##현을
AKB
Le
북한의
##99
금융
##범죄
##리스는
##지구
멤버들의
개념이
상륙
충청
##내에서
헌법
##번과
규모가
조차
라이온
wh
2011
안습한
듣게
야스
마스크
3개의
##무의
납득
##일지도
올라갈
##블을
선수로
때와
소송
캠페인
적당한
지고
없었지만
야간
한가
정도면
##터와
##버의
사유
잡으면
성별
소중한
일부는
흔한
##학자
투어
턴에
일단은
않을까
가져다
##40
##층이
최순
변환
되려
파밍
거라는
##계획
일본은
에피소드에서
등극
에픽
##후가
##국제
기다리고
티어
##처리
사용해서
데이비
1억
대성
지능
##살이
낙하
동화
##녀가
유니크
나고
수직
대통령의
파르
조언
믿을
110
기술은
차량을
ED
복제
##품으로
마음대로
누군가가
##ark
추천한다
방어력을
원작에서는
부적
##터미널
##A의
무술
어뢰
왕국의
##들고
사신
밀리
##병원
승부를
##end
쓸모
자본
전라
안심
##까봐
가상
감독을
##다시피
시작하면
북부
사건은
멤버들
세르
정반
1승
##구치
만드
포트
수습
즉위
정해진
##줄이
노무
새겨
옵션이
과목
보정
터트
##용은
풍부
기분이
##량도
시작된다
않았기
나노
도구
##일보
아닐까
67
비율이
출신으로
##야와
de
이었다
##로소
파리
만화가
떨어지고
뽑을
모습과
메이플
미션을
K리그
##박한
무효화
왜냐하면
볼트
토르
히틀
##과가
##스테이지
바뀌는
밝은
비틀
하려
악마의
주된
##서와
##임으로
말라
##노스
소요
고쳐
발로
선고
공방
마라
메모
##씨의
##반을
훔쳐
마치고
##거라고
도적
##산에
패배를
적절히
모두를
한계가
an
##소와
이때는
##딜을
토마
##퍼의
매니저
히든
##천만
통치
68
##디에
성격은
##드에게
##티가
터미널
철저히
##룡의
모로
용이
이해가
벌어지는
##네를
추측이
유재
##년이
유희왕
##거야
##했을때
하였고
얼굴에
의문을
63
로얄
##너의
개신교
5분
시점에서는
저는
##ass
##팀은
실제로도
진정
철수
##보인다
보상으로
주제
벌인
모에
주목을
##하기를
크라
피아노
쓰던
든다
극도로
##너스
사령관
오면
딸을
우호
별의
분열
130
굉장한
싸운
변해
좋아한다
순으로
동남
마드리
답답
기기
##장도
죄책
지켜보
멘붕
##혹한
억제
##리아는
방탄
##카에게
골렘
우리의
차이로
먹는다
유입
도와주
##매가
나갔
히나
버틸
##버려서
##TE
수염
사고로
리스
연봉
개인의
임대
##노트
깨닫고
오크
적게
자존
안타깝
토큰
3000
주며
천천
##구간
##량에
네덜란드
음성
얘기가
시즌2
움직일
##태가
마을을
##중앙
커스텀
득표
건네
정교
##즈로
갖게
##폭탄
면모를
##버렸고
재미있는
이상하게
조연
타이밍에
숫자가
배제
##폰을
신나게
까는
리치
모노
한나라
##ob
편하게
##냐면
시작해서
##포인트
멤버가
##줄을
##P를
##보병
공사
싶지
##명과
공격력은
죽으면
포스트시즌
민첩
불태
수도권
아동
##린다는
말하자
서클
##AD
드래프트
##og
내용의
##병기
##음으로
엔젤
##범위
획득할
묘하게
형태가
계통
MAX
루이
동반
##번으로
하므로
##무는
제4
사서
아까
##전한
간호
기상
바이러
##버그
73
선수의
블리자
제트
변화를
연출이
##달러
최적
##하다면
2사
메카닉
##부르크
맞춰서
서구
타츠
축제
연구를
##뉴얼
여성이
노리
##질적인
극단적인
나왔을
##our
DS
불쌍
뿐더러
신형
분노를
높아서
인게임
퍼즐
로빈
위안
어머니의
점과
빛이
##버튼
치킨
모델이
바뀌어
생김
날뛰
즐겨
코르
유저들
##ft
걸그룹
편은
주류
쪽에서
너는
몰살
실전
열고
약화
모드로
요리를
타마
감수
했기
카와
힘입
##전자
통째로
하반
아무튼
재등장
후기
권유
##추는
마신
존재로
##포트
##생활을
산탄
##사기
보스가
헷갈
##하겠지만
사람으로
되니
##미한
디즈
목적을
비주얼
##해온
않으니
##했음에도
아버지와
대전차
that
##기면
언젠가
아직까지
그중
##전까지
상영
토우
##사고
드러났다
베타
관측
춤을
##플러
배드
베테
##님을
부숴
추방
##오로
여성의
##도도
과거를
##커는
경호
이해할
##석으로
않으나
##희는
##II
챔피언십
3부
아일랜드
무대를
명문
그후
하였으나
따뜻
벌이는
##이다보니
구별
##보지
THE
삼각
영웅이
##시에서
##ows
##차게
성격으로
##셀로
밝혔
##철이
버전으로
오키
호남
대사는
##처를
존재하며
세월호
멋대로
않았으며
죽이려
적용된다
아니게
재사용
가능하게
##60
어그로
이기고
폭행
지나가는
바위
##식과
생각은
어드벤
골라
주인공과
이벤트로
어려울
모델로
문제점
1992년
##자로서
연인
로이
##국과
굴러
어벤
##당초
서비스를
시노
##전설
뜬다
크림
##몬이
우측
##딜이
셔틀
탓인지
포수
그러니
밝혀진다
높을
시라
어시
각본
난사
진에
가진다
내에서는
##면으로
뽑는
피니
10대
유용하다
동급
##티즌
문제에
##안은
##잡이
이외에
##세서
##양함
내리는
##관계를
마블
박지
강간
에피소드가
끼워
##족으로
조합을
##중이
##시아의
1993년
천천히
##계약
독점
용사
##ix
##가에서
의미는
수의
##풍을
고통을
##소설
봉쇄
기본으로
##ite
BL
##해하는
조리
투사
불의
정기
여러번
멍청
표절
##워하는
##타나
##대기
후보가
비난을
따르는
넘버
제공하는
페미니
공장
##테니
##중의
방법도
자의
##아도
기록은
##랜드의
##마로
크래
하필이면
원자
이럴
인해서
치고는
기껏
입대
지향
승리로
코스튬
서바이
##달라
##득점
나라를
돼지
도시를
학생들은
Te
##양의
돌아간다
이후로도
록맨
패턴은
기둥
사실에
이겼
##바나
것입니다
##인치
##자라고
능력도
신속
1초
대가로
버텨
싸우고
안의
역임
해리
##투스
실패한
10만
##주의를
나간다
네임드
##금으로
자체에
코스트
유혹
프렌
무쌍
하나하나
노벨
##졌기
실드
피의
병력이
게임으로
것들이
좀더
테라
##슨은
끝났다
일반인
다시금
Me
메모리
대면
아이들을
이기는
##즈에서
##년간
##문에서
정상적으로
이룬
##경기를
##카운
##츠와
버전은
디시
제안을
던진
윈도우
##롭다
강해
##해야한다
##랄한
강경
##셔널
시내버스
들지
영역
심해
##형과
##생으로
##쿠라
상태이상
트릭
이순
끔찍한
속의
##쿠의
무엇보다도
##었기에
##대화
설이
##층의
먹었다
일부가
곳곳에
##거가
등도
평상
##브는
반면에
낚시
질문을
에릭
##온을
어째서인지
주문을
스트라이크
가능할
##리그에서
주축
간단하게
We
그렇기
배운
흑인
##ake
선임
단어를
담은
##글을
##매치
테일
트루
주인공에게
하늘을
때에도
비율
##ame
소문
##애를
##타운
고려하면
야쿠
##훈의
같다는
네티즌
변한
조언을
면역
올바
사법
떠난다
날짜
진행되는
아들인
FIFA
보스를
머리카락
##전에서도
특징이
이놈
##번호
경험을
긍정적인
정부는
##신도
##담이
않았는데
디스크
활동하고
없었다고
여기저기
##들까지
엄밀히
디자인을
둘러싸
표현을
우르
빠르다
##레인지
말과
##세스
일관
장치
저렇게
의지를
##문학
분노한
사로잡
타이틀을
업체
후원
수색
##포는
##ide
중거리
최우
##자치
변태
커맨드
싶다는
유카
주위
김기
##rom
불리한
##소나
##냈고
서머
봐서
##아야
롤드컵
않나
비교해
달하는
창설
##오면
나누어
오버워치
방을
심각하게
위해선
확정되었다
것이나
후일
##코에게
게이지가
##마크
출력
##초등학교
전주
##쪽이
##청을
들어가지
똑같다
DC
무소
92
떨어질
##이에게
Tr
타이밍을
##채로
진지하게
##시키지
손해
진행된
소방
##출을
안정적으로
##테이션
##당과
상징하는
기갑
우회
설명은
사나
일행과
했다가
조금이라도
시종
영향이
공수
포함해
일렉
백업
즐길
오기
##커스
시작되었다
대결을
그러면서
배차
##오자
없기에
까다로운
추측된다
기술의
학교를
텍스트
##분으로
##심의
덱을
침투
LA
놀라운
받기도
흐름
백인
성과를
회사의
상점
역의
엘리자
##께서
UN
써도
미드필더
sh
개성
78
Wind
리버풀
행동이
우익
방송에
##사무
6개월
감이
아서
적들이
천안
사람과
물질
##병은
무거운
일기
활동하는
에르
제네
##곡은
내에서도
축소
##때마다
코스프레
끝이
벌레
발견하고
실력은
갇혀
복무
초기에
떨어졌다
고난
##거지
##하듯
Cl
한꺼
누구나
엔딩을
측은
초콜
프란
##벌레
파울
##해야만
쿠데
탄핵
태클
작품에
빠지는
잊혀
멤버로
건물이
원더
때문이었다
##초를
##길이
소용
##tt
81
양손
구간은
묘사된다
돌아왔다
##속에서
할지
여태
차트
따라서는
미국이
이곳에서
카리스
모르지만
형편
상태다
이곳에
고등학생
측정
유래는
##거다
교사
능가
자원을
##ies
##프라
플라이
일본이
병기
##테일
원조
XX
유료
인상을
말해서
##사회
##쿠가
패배한
1호
SF
##토에게
결국은
괴수
##모는
NE
빌런
피에
이야기도
선보였다
인스타
시즌이
단위로
동경
Wh
잡몹
그러므로
출시되었다
코코
감상
찾고
주자
##오지
##지므로
지역이
섞여
출루
##천의
생김새
검술
시에는
육체
수단
작품이다
뿌려
억울
필드에
분기
엘리베이터
한꺼번에
후방
##면의
분쟁
##uc
함락
##례로
심사
에로
후회
동행
드로우
의상
점수가
속성이
없어도
깔끔하게
가디언
뿌리
깨끗
하급
포스터
시로
내부에
입증
주최
전쟁의
DPS
밤에
Al
자제
##센트
상대로는
84
발표했다
김상
김진
##위대
##리스가
부근
##공원
두번
화성
##oy
레인저
플러
##자리를
##이나마
전투의
모습이다
경기에서는
문이
배경이
전북
##아아
세계로
내용이다
차원에서
선수들을
극중
스텝
최악
여의
##싱턴
대마
##하였지만
약을
me
논의
관계는
해치
지원하는
조기
##실과
방식의
5번
패밀
뜨는
창단
##아닌
71
대다수의
철학
##감으로
그렇기에
냈다
잘하는
2010년대
900
##대고
붙인
요소를
아카데미
##딩을
아이들이
속한
김성근
안경
어설
힘입어
누나
경력이
대표하는
고증
문제의
국내에서
##엘이
차량은
2개의
슬레이
무자
없었기
##치고는
라인을
시골
빛나는
##ace
입지
3으로
바른
##다보면
올라간
마을에
2위를
않는데
조건으로
작곡가
밑에서
고지
등장하고
##투표
올라와
##왔다고
남게
담배
모종의
개척
##강을
니콜
카츠
레코
베테랑
비용이
시합
절친
이어져
실사
##크리
진행된다
##제국
##US
##형에
라틴
드루
##바는
은폐
자금
십자
실현
잠실
감독으로
사천
단종
##었다가
Ex
저글
루나
양이
기사단
알려졌다
##테르
내부의
비가
##수인
시작하고
알려지지
피하기
주식
있다며
우울
반전
음모
##미사
높지
최저
##히기
##중을
결혼을
##페이스
국왕
고무
머신
라이프
만나고
역사가
우라
##받게
일어났다
##쪽은
좋다는
##기준
##두로
퇴각
CS
무언가
한일
이른바
al
지지를
단행본
피로
##되지는
민폐
부유
82
때만
칼로
##90
아미
사이클
시리즈는
노래가
인물은
쓰러진
000원
고소
피부
카자
갖춰
빙의
##작인
탈취
프랑스의
학생들의
충격적인
선발로
##피안타
충족
착한
영화가
1988년
대동
140
인공지
못지
하루에
죄를
##적이며
흥미
##병에
##마귀
고장
포획
몰라
##이크를
제노
이어진다
장탄
등장해
신선
놀랍
최상위
포탈
##기어
판정을
인벤
돌아다
슬라
플레이할
토요
조합이
Gr
##내려
깨어나
##바퀴
##영웅
동점
##급은
##오기
발견한
이대로
짐승
테니
할인
1등
종목
권력을
##카드를
애용
1980년대
일으키는
학부
전반적인
전략을
무난한
밖에서
섞어
##돼서
생방송
휴식
##릴라
교육을
가져온
추세
되었던
슈퍼로봇대전
보자면
##변을
##테이
4개의
인용
언급된다
승점
가요
일대
통하지
##ない
케이블
##야한다
불만이
살던
##사거리
만렙
캐릭터들의
##들에서
이대
있겠
가성
불교
저주를
평소에는
3세
94
몰고
fe
성적은
발각
보여주지
마오
##이었기에
단독으로
##ice
서포트
전동
##영과
부부
##킬을
아스날
실패하고
뻔한
찍을
취득
##LL
1991년
태평양
##왔을
출간
레일
마린
예쁘
가능하다는
이전까지
##곡의
86
있음에도
##환으로
용인
전쟁에서
데빌
흡사
연령
정권
파란색
고블린
약속을
##상가
잦은
버섯
싸웠
웬만
진격
##년에
##순위
최종적으로
묻는
일하는
##모습
##엘의
공중에서
게스트
공무원
정도만
수수께
##임의
국회
격려
점유
드라이버
안겨
스피릿
매주
잉글랜드
갔다가
전망
번호
시작해
달라진다
해머
##창이
밀어붙
##레인저
활용할
과장
침착
기생
##병과
시상
논리
조회
##노와
자녀
##ance
모르겠지만
영어로
시카
돌아갈
집권
실패했다
드립을
유적
녹아
소음
##티의
저작권
검열
분산
부탁을
##라이브
막강한
에디
##맨과
노력을
묶어
간섭
##터에
클론
##축구
##하고도
이름도
외야
나왔고
87
상하
분해
지속적인
스스로를
낮고
몸으로
문제다
체제
##히며
부르기도
직전까지
##수에게
전체에
##민과
##론가
체결
공화국
덕분
제작된
##범이
다가가
사업을
무라
목적이
놓여
라면서
금메달
텐데
거인
##책이
역습
황제의
##절을
le
다닐
합동
한국은
전파
##우에게
키를
키우
수수께끼
뜻으로
되돌아
쇼핑
##강의
1989년
이고
성향을
간지
업그레이드를
##풍이
##공사
드물게
원작과
스핀
플래시
##때도
넘쳐
많다는
몇번
##차고
선수들
##우스가
모순
중고
마땅
스키
웃는
장신
도망가
않았다면
##으려면
KOF
클린
루카
이쪽도
히어로즈
하쿠
학과
지연
##있다고
이름에
상태이
고마
드릴
##ud
시리아
장본
##동에서
##공에
포켓몬스터
철권
급격히
보낼
점멸
본다면
##NA
초인
##렸으나
크레이
비롯해
흡혈귀
목적은
오고
적군
##시다
들어보면
##0년대에
##더는
프로레
그곳에서
뜻이
모집
신라
피지컬
##적이지
돌고
##뿐이다
두드러
새누리당
##령으로
##으신
##할만한
아스트
때를
160
##값을
Un
모듈
받았다고
미쳐
80년대
워크래프트
즈음
사퇴
##키에게
이틀
자칭
되어야
마음의
덧붙여
그도
네크로
유물
터지는
이리저리
에밀
디바
비스
측의
배울
아츠
전쟁에
잃어버린
특화
짧게
대해선
생체
감탄
클라우
믿는
쏘아
엘레
평행
##해선
마을의
아군을
발행
경찰이
무방하다
##나카
색이
잊지
비행기
별명을
마력을
##탄은
다루고
점에
10초
지역으로
장착한
모아서
있어서는
통틀어
잠수함
갖다
나뉜
출범
##게이머
##저래
흰색
능력치는
사라지는
유비
입문
##치아
##택이
다이아몬드
##문제
##밀한
경남
##너를
엘리자베
##파와
평소에
상황에서도
인간과
소환할
뭐가
찔러
바이올
##료가
언데드
서식
악명
##속의
스타리그
들어가게
구간을
##거든
그렇듯
##들어가
떡밥이
하프
IM
GB
없어진
일본인
저렴한
마루
부동
##편으로
블로
중장
순간에
회차
낙선
기름
##차량
어렵게
제5
주술
답게
붙는
2주
번의
밀고
친척
##되서
리그에서
##하여야
지구를
면도
발키
기도
지구의
바르셀로
일어난다
시청률
스카웃
##터널
전향
자유한국
##액션
학생이
식사
종결
맡는
않다고
##티스
아이디
생각하지
대부분이다
고속도로
SH
신데
힘의
바라는
한국시리즈
압권
##하더니
프로듀스
크레딧
아르바
피규
휩쓸
학교의
드러난
어머니는
바꿨
싸운다
법칙
위와
영향력을
SE
이렇다
##아머
##체육
원래대로
##믹스
만능
체인지
세부
사용자
##드래곤
디펜
연고
남아있다
자료를
OVA
##금은
메이저리그
거북
강하고
보상을
하긴
##만화
모티브는
높여
이라며
##련의
스컬
##오게
##적도
##스피
작품에서
여섯
전력이
없습니다
아슬
##분은
사이로
##커로
강도
박아
제치고
##그러
공간이
복합
##ick
상대방을
##타카
거두었다
향후
공격적인
과언이
비판이
감옥에
태어났다
##하기까지
자전거
AD
됩니다
두개
약혼
무언가를
##군요
트래
My
##해버렸다
합리
부담이
뒤의
##렸으며
특화된
상대하는
오죽하면
필요로
연예인
연쇄
다큐
1500
##방은
이래저래
보호막
어머니를
##형인
##질은
##심에
복원
선행
공부를
샷건
날카로운
인사를
##P가
그거
##가리
##접한
현재도
매드
능력치를
단어가
##성한
재능을
방식은
##어버렸다
명칭이
##계와
##조와
뿐이지
무역
담아
##패턴
##이다가
분신
##일리
나타내는
전작과
말고도
모션이
미국은
힙합
수동
보여주면서
원시
##메라
철저하게
상대방이
증가합니다
앞선
조사를
여기에서
5000
##클래
멤버들은
딸이
##훈을
원소
특징을
BR
게임이다
공이
노릇
보험
유틸
##랍니다
##고와
두는
##로이
리드
JT
늘어난다
합병
##쓰고
불타는
학습
떠돌
##환은
##총을
##선생
##오면서
미도
설정은
미사일을
3층
##런트
매장
스탈
제목은
반란을
영주
가담
대변
중지
태워
##월드
칼리
속성을
악화
보스로
터진
기묘한
트윗
너머
쓰기도
감동
이름만
소중
본래는
69
기적
눈앞
장례
##주의자
운영을
소규모
##독한
살게
이누
예전에는
화살을
오스트리아
세계대전
모토
##칭을
공간을
93
뚜렷
콤보를
##분한
팀에서
##왔는데
거짓말을
건국
매체
다르지만
10개
딜이
기숙사
##IG
##orld
뛰어들
몰아넣
보좌
의미하는
예산
##올림픽
사가
압축
##테고
오게
최연
별개의
이모
4명
순서대로
##류는
않자
포함된
검은색
보냈다
##네이
킬러
진행할
그릇
터널
시작부터
왼손
회색
알지
아쉽게도
법정
피터
이쯤
침몰
랜덤으로
도깨
모드가
83
가챠
전성기
버서
재건
헬멧
엉덩
##학의
##보며
인민
매그
코토
부실
시뮬
유기
주무
컨디션
사투
사정이
약점이
##액을
본토
국가가
노선은
미래의
쳐서
와중에도
오를
com
황제가
사단
닌텐도
변한다
##재판
ES
귀국
맵을
쓰이지
##작은
방영된
터라
##화점
무한도
모인
없었을
##식에서
비전
큐브
문제도
초콜릿
못했지만
이집트
받아야
전송
##하마
##르면서
오스만
재미를
##음은
완벽히
보라색
세인트
##업에
신세
HP가
반짝
##석과
##사단
##나기
뜻한다
판결
시위
보너스를
이동할
91
100만
##는다면
유지하는
용암
버전의
여자를
##있기
1을
주의하자
구미
##에게만
##되었다가
속해
입힌다
팬이
가령
스텟
틀린
##포스
1화
##시스템
추가된다
목걸
아티스트
쳐도
스트리트
세우
쉽고
마저
추가바람
##풍의
##디와
프리미어
우스
##리에이션
스탠드
애쉬
활동이
영상에서
여론이
존중
비판하는
##GB
성공적으로
주인이
출혈
서번트
벗겨
일베
짓는
버릴
##동물
마운
##공은
이명박
##저스
것이지
필리핀
공격력과
날린다
다리가
방송이
이동하는
유닛은
골키퍼
김준
2를
준수
오르는
신경쓰지
##포르
부분도
공용
나왔지만
##지다
창원
Windows
워싱턴
헤르
재장전
당초
##두를
박물
이그
##되어야
수준은
번째로
김유
원작에서
##여자
적힌
보여줄
상당수
모델은
표현이
겪은
##종으로
공헌
규모의
##연은
있을까
1집
보건
##해볼
정책을
애완
중력
##라미
이세
발사하는
병과
일족
화해
주저
##니즘
단발
아버지인
앨범을
통하여
보이기
아니냐
불리며
##견을
올라오는
내며
모른다는
##니코
상성
수급
국내에서는
##겠어
도덕
웨스트
캐릭터인
##훈은
따위
##가스
독보
팀으로
##네스
썬더
목표를
남매
##지에게
특정한
땅볼
##치킨
##들여
1987년
나뉘어
대피
슬픔
좌측
##전부터
##트론
신용
알레
오메가
##앨범
주장했다
여우
진급
드러내
5성
##처가
확인되었다
##장에게
##ber
##카페
##상승
##파에
주인공으로
##만큼의
##빨리
마찰
운동을
3배
##좋게
##블리
인간은
마친
신사
가져가
모양으로
벌어졌다
보드
##심은
얼마든지
경기력을
선진
초에
간파
미성
모두에게
토오
##관계가
프랜
부대를
시크
그들
노린
하나같이
가히
그나마도
중견
북쪽
되었으나
아니었
ML
발음이
해산
등장하여
유저는
##ord
공격의
고개를
##오리
있는게
내려가
상위권
무시할
공중에
보낸다
세레
105
불멸
구조를
것인가
초기화
올려주는
때려잡
많았던
##버스가
의사를
##1의
##초가
스티븐
OG
시험을
무대에
재수
##린과
단위
주변을
##시기
드워
키라
##머스
발사한다
1점
6개
엉뚱
상대하기
너의
다이어
##소리가
야수
츠바
식민지
드래곤볼
역이다
읽고
일조
토대로
필요할
활약으로
드라이브
##호에
부패
##마에게
간접적으로
여객
덱에
포지션을
##쓰는
강림
##쾌한
망설
신부
계략
발목을
사촌
유저의
##니아의
##자이다
##여행
능력과
##현과
왕복
돌리는
##pp
누르고
대가
맞추는
##작에
유학
날아가는
궁극기
##신에
##경제
신을
오류가
입는다
##ile
##대사
실존
성배
버프가
##들한테
온천
의도적으로
##집에서
항공모
정신적
콘텐츠
내렸다
외곽
입에
냉장
##ther
3분
팬들도
##임에
##사리
가공
남자의
설치되어
트라
7년
믿지
원숭
사용되었다
##전도
오우
이라크
스카우
당연하지만
79
창을
##관련
고성능
##주교
사람이다
자를
하스
##견이
사이를
되어버린
유산
호수
##편에서는
##당에서
##IP
##키아
height
평양
과정이
표정
경험치를
감추
##포와
189
꼬리
허리
##리즘
##우스를
다운로드
막혀
보편
받았던
종류가
리볼
포착
##오버
##보에
들키
써먹을
쪽을
##등으로
여유가
보구
##항을
식량
웃음
특징은
따라잡
위험이
충격과
트레일러
소수의
##킵니다
늘어났다
무료로
과격
##시까지
##자들과
##iss
힘에
##념을
구울
제라
BJ
이르는
재앙
프로토스
SU
##레옹
##대체
관계없이
하라
##대상
전남
이용하면
정도에
방에서
그레이트
하단
플레이하는
그렇다면
라면
응용
인정하고
비중을
지속시간
기간이
##재의
##쳤고
먹여
전대
하도
##기면서
언급을
메이드
첫째
고아
부천
마카
##형태
죽이지
##링은
상냥
이외에는
해소
##활약
움직이지
남학생
극초
기록하고
작품으로
어렵고
선수들은
갈리는
MG
나폴레옹
구역
내지는
방식이다
인류의
시대를
명중률
세라
치료를
루머
구축함
속도는
천연
##아시아
걸리면
선택을
버스를
시작하면서
하는게
##할지
TVA
DD
남지
법을
발견된
반쯤
##활동을
만나서
이병
노는
암시
즐거
##희를
요즘은
89
사망했다
없음
지점
교차
말고는
##가드
이루어졌다
실려
전장
##션의
선호하는
가족을
클리셰
##전에는
나서는
데모
치러
잡힌
베지
이빨
주관
불어
수상한
유나이
확산
##샷을
능력에
마물
해당한다
측면에서
패치를
##판에선
블럭
바둑
좌석
ne
마족
기동전사
해준
힘들고
2호
##LE
떨어져서
불과하다
논쟁
##행위
##스티벌
체계
디스플레이
프로게이머
##하자는
안고
관리를
쓰이고
장관
2장
아픈
바나
주택
캐치
전투력
소속으로
만나면
##만도
남쪽
메구
##련을
작중에서는
돌아올
케리
이때부터
녀석이
효과도
하나에
수감
탄압
##지던
##요시
만들어졌다
사립
대부분을
공감
알려준다
발생할
듣지
넘어갈
고립
전개가
최전
도시의
히메
붙어있는
유망주
상황이라
미국과
못하며
모양이
꺾고
아시
들어가기
이처럼
착륙
원주민
원래의
어려움
분홍
담당하고
스매
잘만
이듬
##프리카
##비전
자체적으로
게시판
데이트
디젤
적용되는
시의
제작진이
바꾸고
포장
3가지
상담
무시하는
상관없
병행
시작하였다
다행히도
##aw
안전하게
주입
알기
느끼게
벗어난
##사격
바닥을
국경
묻는다
##정치
##MS
공짜
피카
모빌
봐서는
섬의
나눈
스노우
취업
프로리그
비밀을
It
닮았다
바텀
염두
소속사
공인
조종하는
신생
##학적
병원에
숨을
맞물
##건은
아수
얼티
연결되어
인원이
표정이
##백과
3개월
자신들을
가면을
남의
마법으로
카카오
En
먹지
눈으로
지리
가치를
2만
##다와
##호에게
2개를
소원을
슬퍼
동계
아포
에메
비서
높지만
그려진
등장은
##파워
PV
신중
기술이다
도배
부자
탁월
목소리로
대법
사악한
스탭
##한지
##렐라
나이는
역이
벌써
용어
절벽
스트리머
뜨거운
아이템은
운명
일각
제목으로
다시는
강렬한
엔드
직선
자기를
##정당
##근이
75em
ch
탱킹
힘은
운영하고
연락을
##이라고도
후술할
맞았다
팬들을
근처에서
친다
엉망
메세
##구장
##ign
일꾼
##되니
디자이너
##노스케
무작정
김일
대상의
저하
프론
##화하는
트위치
정황상
알수
몰아붙
OP
여주인
2가
수장
##법의
##리아와
대량으로
알았
##그마
전담
폭로
##전문
시리즈와
과시
##리우스
바뀌고
고집
##협회
일어나지
열혈
하마
필사
지나친
실용
퍼스트
경연
##주기도
##회복
케빈
3기
것에서
##됨에
##롭게도
따르
통솔
말레이
지루
씨앗
폴아웃
##프트의
배터리
둘이서
객관
에리
기부
한대
핑크
치즈
돌아온다
호감을
##조각
방사능
당대
입주
##해버린다
2009
##에다가
20분
2분
양반
##가능한
많다고
##실점을
오른손
안양
개가
실린
도대체
보여주기도
띄워
계단
단점은
맵이
수천
쪽의
##거의
##혁이
일본군
네트워크
호응
발생했다
가사를
피어
못한다는
자리가
호러
변호사
안하고
전격
이듬해
대체적으로
걸릴
슬로
추리
심히
작아
##워즈
언급되는
##열에
한국과
이름과
Co
통하는
##적에
말씀
투기
한달
모의
인물들이
맡았던
무엇을
시킬
요격
베이징
##로이드
작고
##자책
플랜
유닛으로
탐색
삼고
디버프
디즈니
로즈
##조합
외형
만루
작화
고르
얻지
민주주의
그리는
참모
##속도를
급속
##전기
##크에
아가씨
못하다
이가
##경기에
수업을
차지한
인생을
이후부터
짧아
비정상
교류
##하기에는
않습니다
약하다
복사
수술을
ex
붙어서
##거래
##ower
##트도
이용객
것들을
발탁
히비
##타에
카피
어드밴
때문인
걸맞게
정석
##볼넷
한계를
나타났다
체력과
유성
그보다
나기
스쿨
미루어
현실의
각자의
##철의
##반에
##이는데
소꿉
찾으러
##패스
않던
3초
정신나간
당시엔
4번째
시범
##학원
##pt
사과를
현대의
바론
##기자
수비를
희망을
##방어
다른데
존재하는데
OS
러시아의
##게이트
알아차
올린다
##유저
스타일의
as
여캐
1세대
we
내뱉
##방울
학생들을
##ink
공대
스티브
초상
고스
없지
길에
미궁
작사
빨아
지을
띄는
사운
운송
플래그
오페
연습을
쥐어
보이스
맞추면
JTBC
실점
아베
업무를
##말이
성격의
선동
혼혈
나라가
동맹을
진지한
2턴
효율을
키우는
날린
##이후
돼서
연대
곳도
판매하는
##너는
비슷하지만
친구인
노골
##상태가
줄어든
##기록
나뉜다
앞세
할로
##층을
마우스
베를
분당
동쪽
기를
단점을
본진
##트랙
your
##혜를
5인
##곡인
CF
##타니
주행
특전
보이게
##했으면
여기고
구형
남한
포인트가
구름
맵의
아자
중소
진주
보스턴
초등학생
목이
시기가
##패가
##겁게
떼어
##장애
게임에서는
김두
에도
##몬을
소환하는
불안한
스쿼
찬성
미러
카스
두꺼
피하는
벤치
흑막
불타
덤벼
논란을
크라이
입구
##말에
남자는
매출
수립
지식을
발매한
가자
장성
프롤
##크라이나
갖는
피난
노란색
영화에서
여파로
진실
역할이
들어서는
늘어나고
엔터테인
대기업
##자이자
멀쩡한
AKB48
모터
Wi
갈고
##온은
싶어서
전인
내용으로
사항은
바랍니다
육상
가깝게
리틀
##된다면
궤도
##성에서
이벤트에서
받았지만
회사가
공교
##투수
##펙트
##천을
멀리서
진행한다
라스
완공
유언
방패를
시가
1986년
클리어하면
쳐다
입히는
##고에서
##자였던
남동생
##차이즈
보였으나
운행하는
맞출
##지대
##브레이
수치를
흉내
##년의
보스의
##하겠다
##절이
##어버릴
실내
고등
출산
최종보
출동
##RE
실험을
1이
##재는
모두의
지내는
##활동
생각에
##케이
##열의
밥을
다투
초청
살펴보면
조치
찾아와
초고
기지를
받으면서
근처의
공포의
배리어
Love
대시
유이
주제로
얼어
파츠
화산
##레일
125
Fate
두뇌
상술한
##사이어
마지막까지
의혹이
생명을
예약
중에선
##수준
##리다가
우크라이나
##때까지
사람들과
en
##마리를
주력으로
##부인
시청자들이
공업
##플을
어찌보면
RA
슬슬
캐릭터에
낭비
해당되는
미친듯이
없어졌다
김주
차이나
##측의
사람이라면
문제점이
비참
통칭
거꾸
##삼진
##군에서
서울시
걸려서
##안으로
소환한다
깨고
명시
태어났
권한
1980년
War
##함으로서
시사
내부에서
발표한
저승
##버스를
토리
##벌을
행보를
수석
5위
용도
이른다
멀어
스토리는
향한다
##유는
드래곤의
겪고
다름아닌
고로
돌아오는
문서에
트랩
맛을
데려가
4의
M4
싱가
##도서
극대화
있을지
손해를
유니콘
크지
드래곤을
리뉴얼
불릴
##했어요
진행이
영화에
그마저도
##즈키
대통령은
지시를
소니
##머리를
노인
##비행
항목에
빈틈
마을에서
결승전
섀도우
아랫
추가되어
##스포츠
애초
브라운
승차
비공식
##례가
친구를
##바야
코미디
시외
마산
무기에
동료가
노무현
섭취
잡았다
##음과
사용을
쓰러져
거뒀
도트
##로마
미소녀
사전에
보였고
시선을
구동
##그의
##팀에
##네시아
##쉬가
등장으로
잘생
##룡이
##70
캐릭터이다
진행을
미끼
이어가
수록되었다
##채를
산하
안개
이루는
그간
넘사
##ky
##페르
##이라고는
밝혀지지
##해주면
##찮게
여기까지
##진한
##보호
노선으로
PP
뛰어나다
##불을
##왔지만
지우
사태를
어긋
자율
##따라
명은
이경
동성애
##커와
음료
강호
그란
야마토
정해
##체스터
서쪽
손상
##불명의
차에
##장치
훈훈
허가
##갤러
앞으로도
자칫
단검
세계가
마지막에는
##15
##셨다
생명의
샤를
종영
보러
브래
##풀이
위치하고
더구나
상승한다
면허
아마추어
##mme
설명하는
헬리
1이닝
##네마
장제
짓고
한층
설치된
루피
열매
##국인
아레나
바란다
상자를
소속된
일삼
##하느라
정규시즌
##통에
주어진
문장
감금
만주
유저들에게
나서서
이도
몬스터는
##man
의아
##파괴
생각해서
안녕
빨간색
내버려
아비
요한
##해버린
꿰뚫
내성
마틴
PK
##에이
로버트
미쿠
미묘한
초반의
중동
달성했다
앨리스
##보우
유동
짝사랑
존재감이
미칠
BGA
만화를
후임
30초
##지수
이노
묻혀
이태
##못해
이윤
고의
##리라는
얼라이언
장비가
2집
자아
전제
##하와
강탈
멤버들과
##카이도
##io
BS
##적으론
##령은
어렵다는
실상은
##두가
경북
때리는
미노
이전에도
거꾸로
##구니
모험가
섬에
##과대학
15년
친절
2008
마피아
배터
원수
##조한
퍼부
역할로
나란히
원인은
##원인
움직임이
연관이
홍진
반지
##놓았다
설정으로
주제가
깊이
##지사
공식적인
##백으로
인권
모양새
깔려
잡는다
##카르
나타났
다짐
높기
검증
##노동
일으켰
##국민
0900
외계인
가리키는
넘사벽
##질에
##느냐에
하러
##염을
이루고
메디
##오스
명칭을
리셋
##발에
방법이다
군의
숙청
성장한
견디
맥스
보강
성폭
성장을
찬양
타율
확신
##내의
30년
부위
선을
##네와
태도
##글이
##여야
입원
##가미
꼬마
##문과
테크닉
##아나
영화는
중반에
##하신
섬광
##베리
번갈
##클레
##ory
실패로
모스크
##무로
다룰
my
거점
명장
위력은
편을
참가한
무너뜨
공격력의
화면이
지구에
아내가
범위를
행동에
영양
재산
##시킵니다
만났을
인스타그램
일컫
아이템으로
##렌의
##짓을
다름없
사무라이
이토
부분의
시작하여
피해량이
근거로
본작의
재배
좌익
##황을
##였다면
##own
걷어
중대
로리
##에요
포로
1985년
바뀌면서
5천
후유
##어에서
##간이
문서의
말하지만
전장에
##스틴
##아슬
쓸데없이
늘어나는
정류장
스킬이다
숨기고
##lect
방어구
근대
수시로
중국에서
극단적으로
패배하고
우에
강아
만난다
##티콘
오른팔
##층에
소련의
놀랍게도
GM
무식
언급했다
무서워
TS
검토
맺고
벨기에
붙었다
전과
##의의
##ree
아슬아슬
공교롭게도
징역
강원
원래부터
타입의
5차
##ial
섞인
##플로
시점에
드러나는
시즌에는
인질로
##사냥
좋아하고
치열한
##리스타
##16
최소한의
희대의
방어를
가로막
극한
페스티벌
사용하게
주위에
##디움
복장
##적이라
##린다고
에이지
해양
##검사
출신인
단기
묘지로
##거는
도우
과도한
재료를
발레
성사
##종합
내린다
##리드
말려
##장비
라이센
모드에서
토니
표정으로
하려는
##물과
부탁한다
축복
코인
##tle
##술이
스플래
이번에
현상을
맞추기
넉넉
밑으로
진행되었다
LP
##3의
주워